#include "magic_wand_model_data.h"


// We need to keep the data array aligned on some architectures.

#ifdef __has_attribute

#define HAVE_ATTRIBUTE(x) __has_attribute(x)

#else

#define HAVE_ATTRIBUTE(x) 0

#endif

#if HAVE_ATTRIBUTE(aligned) || (defined(__GNUC__) && !defined(__clang__))

#define DATA_ALIGN_ATTRIBUTE __attribute__((aligned(4)))

#else

#define DATA_ALIGN_ATTRIBUTE

#endif


const unsigned char g_magic_wand_model_data[] DATA_ALIGN_ATTRIBUTE = {
  0x08, 0x00, 0x00, 0x00, 0x54, 0x46, 0x4c, 0x33, 0x62, 0xff, 0xff, 0xff,
  0x03, 0x00, 0x00, 0x00, 0x10, 0x00, 0x00, 0x00, 0x24, 0x00, 0x00, 0x00,
  0x78, 0x00, 0x00, 0x00, 0x24, 0x00, 0x00, 0x00, 0x05, 0x00, 0x00, 0x00,
  0x78, 0x05, 0x00, 0x00, 0xb0, 0x04, 0x00, 0x00, 0xe0, 0x02, 0x00, 0x00,
  0x60, 0x02, 0x00, 0x00, 0x54, 0x01, 0x00, 0x00, 0x01, 0x00, 0x00, 0x00,
  0x78, 0x00, 0x00, 0x00, 0x13, 0x00, 0x00, 0x00, 0x18, 0x30, 0x00, 0x00,
  0x14, 0x30, 0x00, 0x00, 0x20, 0x2f, 0x00, 0x00, 0xa8, 0x2e, 0x00, 0x00,
  0x3c, 0x2e, 0x00, 0x00, 0xec, 0x11, 0x00, 0x00, 0x98, 0x10, 0x00, 0x00,
  0xbc, 0x0e, 0x00, 0x00, 0x60, 0x06, 0x00, 0x00, 0xfc, 0x05, 0x00, 0x00,
  0x78, 0x05, 0x00, 0x00, 0xec, 0x2f, 0x00, 0x00, 0xe8, 0x2f, 0x00, 0x00,
  0xe4, 0x2f, 0x00, 0x00, 0xe0, 0x2f, 0x00, 0x00, 0xdc, 0x2f, 0x00, 0x00,
  0xd8, 0x2f, 0x00, 0x00, 0xd4, 0x2f, 0x00, 0x00, 0xd0, 0x2f, 0x00, 0x00,
  0x0f, 0x00, 0x00, 0x00, 0x4d, 0x4c, 0x49, 0x52, 0x20, 0x43, 0x6f, 0x6e,
  0x76, 0x65, 0x72, 0x74, 0x65, 0x64, 0x2e, 0x00, 0x00, 0x00, 0x0e, 0x00,
  0x18, 0x00, 0x04, 0x00, 0x08, 0x00, 0x0c, 0x00, 0x10, 0x00, 0x14, 0x00,
  0x0e, 0x00, 0x00, 0x00, 0x14, 0x00, 0x00, 0x00, 0x5c, 0x00, 0x00, 0x00,
  0x60, 0x00, 0x00, 0x00, 0x64, 0x00, 0x00, 0x00, 0x84, 0x00, 0x00, 0x00,
  0x12, 0x00, 0x00, 0x00, 0x48, 0x2f, 0x00, 0x00, 0xe4, 0x2e, 0x00, 0x00,
  0x3c, 0x2e, 0x00, 0x00, 0xd8, 0x2d, 0x00, 0x00, 0x70, 0x2d, 0x00, 0x00,
  0x1c, 0x11, 0x00, 0x00, 0xc0, 0x0f, 0x00, 0x00, 0xe4, 0x0d, 0x00, 0x00,
  0xa0, 0x05, 0x00, 0x00, 0x3c, 0x05, 0x00, 0x00, 0xb0, 0x04, 0x00, 0x00,
  0xe8, 0x03, 0x00, 0x00, 0x38, 0x03, 0x00, 0x00, 0xa4, 0x02, 0x00, 0x00,
  0x10, 0x02, 0x00, 0x00, 0x90, 0x01, 0x00, 0x00, 0xfc, 0x00, 0x00, 0x00,
  0x80, 0x00, 0x00, 0x00, 0x01, 0x00, 0x00, 0x00, 0x00, 0x00, 0x00, 0x00,
  0x01, 0x00, 0x00, 0x00, 0x11, 0x00, 0x00, 0x00, 0x08, 0x00, 0x00, 0x00,
  0x1c, 0x04, 0x00, 0x00, 0x58, 0x03, 0x00, 0x00, 0xc8, 0x02, 0x00, 0x00,
  0x24, 0x02, 0x00, 0x00, 0xac, 0x01, 0x00, 0x00, 0x10, 0x01, 0x00, 0x00,
  0x94, 0x00, 0x00, 0x00, 0x10, 0x00, 0x00, 0x00, 0x04, 0x00, 0x00, 0x00,
  0x6d, 0x61, 0x69, 0x6e, 0x00, 0x00, 0x00, 0x00, 0x8e, 0xff, 0xff, 0xff,
  0x00, 0x00, 0x00, 0x09, 0x04, 0x00, 0x00, 0x00, 0x1c, 0x00, 0x00, 0x00,
  0x10, 0x00, 0x00, 0x00, 0x04, 0x00, 0x00, 0x00, 0x0a, 0xd2, 0xff, 0xff,
  0x00, 0x00, 0x80, 0x3f, 0x01, 0x00, 0x00, 0x00, 0x11, 0x00, 0x00, 0x00,
  0x01, 0x00, 0x00, 0x00, 0x10, 0x00, 0x00, 0x00, 0xf6, 0xfb, 0xff, 0xff,
  0x00, 0x00, 0x00, 0x19, 0x01, 0x00, 0x00, 0x00, 0x8a, 0xd1, 0xff, 0xff,
  0x10, 0x00, 0x00, 0x00, 0x12, 0x00, 0x00, 0x00, 0x14, 0x00, 0x00, 0x00,
  0x20, 0x00, 0x00, 0x00, 0x02, 0x00, 0x00, 0x00, 0x01, 0x00, 0x00, 0x00,
  0x04, 0x00, 0x00, 0x00, 0x08, 0x00, 0x00, 0x00, 0x49, 0x64, 0x65, 0x6e,
  0x74, 0x69, 0x74, 0x79, 0x00, 0x00, 0x00, 0x00, 0xc4, 0xd1, 0xff, 0xff,
  0x00, 0x00, 0x0e, 0x00, 0x18, 0x00, 0x08, 0x00, 0x0c, 0x00, 0x10, 0x00,
  0x07, 0x00, 0x14, 0x00, 0x0e, 0x00, 0x00, 0x00, 0x00, 0x00, 0x00, 0x08,
  0x03, 0x00, 0x00, 0x00, 0x18, 0x00, 0x00, 0x00, 0x0c, 0x00, 0x00, 0x00,
  0x04, 0x00, 0x00, 0x00, 0x98, 0xd1, 0xff, 0xff, 0x01, 0x00, 0x00, 0x00,
  0x10, 0x00, 0x00, 0x00, 0x03, 0x00, 0x00, 0x00, 0x0f, 0x00, 0x00, 0x00,
  0x05, 0x00, 0x00, 0x00, 0x02, 0x00, 0x00, 0x00, 0x02, 0xd2, 0xff, 0xff,
  0x10, 0x00, 0x00, 0x00, 0x11, 0x00, 0x00, 0x00, 0x14, 0x00, 0x00, 0x00,
  0x30, 0x00, 0x00, 0x00, 0x02, 0x00, 0x00, 0x00, 0x01, 0x00, 0x00, 0x00,
  0x04, 0x00, 0x00, 0x00, 0x1a, 0x00, 0x00, 0x00, 0x73, 0x65, 0x71, 0x75,
  0x65, 0x6e, 0x74, 0x69, 0x61, 0x6c, 0x2f, 0x64, 0x65, 0x6e, 0x73, 0x65,
  0x5f, 0x31, 0x2f, 0x42, 0x69, 0x61, 0x73, 0x41, 0x64, 0x64, 0x00, 0x00,
  0xf4, 0xd1, 0xff, 0xff, 0xd6, 0xfd, 0xff, 0xff, 0x00, 0x00, 0x00, 0x08,
  0x03, 0x00, 0x00, 0x00, 0x24, 0x00, 0x00, 0x00, 0x18, 0x00, 0x00, 0x00,
  0x0c, 0x00, 0x00, 0x00, 0x00, 0x00, 0x06, 0x00, 0x08, 0x00, 0x07, 0x00,
  0x06, 0x00, 0x00, 0x00, 0x00, 0x00, 0x00, 0x01, 0x01, 0x00, 0x00, 0x00,
  0x0f, 0x00, 0x00, 0x00, 0x03, 0x00, 0x00, 0x00, 0x0e, 0x00, 0x00, 0x00,
  0x04, 0x00, 0x00, 0x00, 0x01, 0x00, 0x00, 0x00, 0xfe, 0xfc, 0xff, 0xff,
  0x00, 0x00, 0x00, 0x09, 0x01, 0x00, 0x00, 0x00, 0x92, 0xd2, 0xff, 0xff,
  0x10, 0x00, 0x00, 0x00, 0x10, 0x00, 0x00, 0x00, 0x14, 0x00, 0x00, 0x00,
  0x2c, 0x00, 0x00, 0x00, 0x02, 0x00, 0x00, 0x00, 0x01, 0x00, 0x00, 0x00,
  0x10, 0x00, 0x00, 0x00, 0x15, 0x00, 0x00, 0x00, 0x73, 0x65, 0x71, 0x75,
  0x65, 0x6e, 0x74, 0x69, 0x61, 0x6c, 0x2f, 0x64, 0x65, 0x6e, 0x73, 0x65,
  0x2f, 0x52, 0x65, 0x6c, 0x75, 0x00, 0x00, 0x00, 0xd8, 0xd2, 0xff, 0xff,
  0x00, 0x00, 0x0a, 0x00, 0x10, 0x00, 0x04, 0x00, 0x08, 0x00, 0x0c, 0x00,
  0x0a, 0x00, 0x00, 0x00, 0x02, 0x00, 0x00, 0x00, 0x10, 0x00, 0x00, 0x00,
  0x04, 0x00, 0x00, 0x00, 0x01, 0x00, 0x00, 0x00, 0x0e, 0x00, 0x00, 0x00,
  0x02, 0x00, 0x00, 0x00, 0x0d, 0x00, 0x00, 0x00, 0x03, 0x00, 0x00, 0x00,
  0x7a, 0xfd, 0xff, 0xff, 0x00, 0x00, 0x00, 0x16, 0x01, 0x00, 0x00, 0x00,
  0x0e, 0xd3, 0xff, 0xff, 0x10, 0x00, 0x00, 0x00, 0x0f, 0x00, 0x00, 0x00,
  0x14, 0x00, 0x00, 0x00, 0x30, 0x00, 0x00, 0x00, 0x02, 0x00, 0x00, 0x00,
  0x01, 0x00, 0x00, 0x00, 0x70, 0x00, 0x00, 0x00, 0x1a, 0x00, 0x00, 0x00,
  0x73, 0x65, 0x71, 0x75, 0x65, 0x6e, 0x74, 0x69, 0x61, 0x6c, 0x2f, 0x66,
  0x6c, 0x61, 0x74, 0x74, 0x65, 0x6e, 0x2f, 0x52, 0x65, 0x73, 0x68, 0x61,
  0x70, 0x65, 0x00, 0x00, 0x00, 0xd3, 0xff, 0xff, 0xe2, 0xfe, 0xff, 0xff,
  0x00, 0x00, 0x00, 0x05, 0x01, 0x00, 0x00, 0x00, 0x38, 0x00, 0x00, 0x00,
  0x2c, 0x00, 0x00, 0x00, 0x14, 0x00, 0x00, 0x00, 0x00, 0x00, 0x0e, 0x00,
  0x14, 0x00, 0x00, 0x00, 0x10, 0x00, 0x0c, 0x00, 0x08, 0x00, 0x04, 0x00,
  0x0e, 0x00, 0x00, 0x00, 0x03, 0x00, 0x00, 0x00, 0x01, 0x00, 0x00, 0x00,
  0x03, 0x00, 0x00, 0x00, 0x01, 0x00, 0x00, 0x00, 0x01, 0x00, 0x00, 0x00,
  0x0d, 0x00, 0x00, 0x00, 0x01, 0x00, 0x00, 0x00, 0x0c, 0x00, 0x00, 0x00,
  0x9e, 0xd3, 0xff, 0xff, 0x10, 0x00, 0x00, 0x00, 0x0e, 0x00, 0x00, 0x00,
  0x1c, 0x00, 0x00, 0x00, 0x40, 0x00, 0x00, 0x00, 0x04, 0x00, 0x00, 0x00,
  0x01, 0x00, 0x00, 0x00, 0x07, 0x00, 0x00, 0x00, 0x01, 0x00, 0x00, 0x00,
  0x10, 0x00, 0x00, 0x00, 0x22, 0x00, 0x00, 0x00, 0x73, 0x65, 0x71, 0x75,
  0x65, 0x6e, 0x74, 0x69, 0x61, 0x6c, 0x2f, 0x6d, 0x61, 0x78, 0x5f, 0x70,
  0x6f, 0x6f, 0x6c, 0x69, 0x6e, 0x67, 0x32, 0x64, 0x5f, 0x31, 0x2f, 0x4d,
  0x61, 0x78, 0x50, 0x6f, 0x6f, 0x6c, 0x00, 0x00, 0xa0, 0xd3, 0xff, 0xff,
  0xc2, 0xfe, 0xff, 0xff, 0x00, 0x00, 0x00, 0x01, 0x24, 0x00, 0x00, 0x00,
  0x18, 0x00, 0x00, 0x00, 0x04, 0x00, 0x00, 0x00, 0xb4, 0xfe, 0xff, 0xff,
  0x01, 0x00, 0x00, 0x00, 0x01, 0x00, 0x00, 0x00, 0x00, 0x00, 0x00, 0x01,
  0x01, 0x00, 0x00, 0x00, 0x0c, 0x00, 0x00, 0x00, 0x03, 0x00, 0x00, 0x00,
  0x0b, 0x00, 0x00, 0x00, 0x07, 0x00, 0x00, 0x00, 0x09, 0x00, 0x00, 0x00,
  0x2e, 0xd4, 0xff, 0xff, 0x10, 0x00, 0x00, 0x00, 0x0d, 0x00, 0x00, 0x00,
  0x1c, 0x00, 0x00, 0x00, 0x2c, 0x00, 0x00, 0x00, 0x04, 0x00, 0x00, 0x00,
  0x01, 0x00, 0x00, 0x00, 0x15, 0x00, 0x00, 0x00, 0x01, 0x00, 0x00, 0x00,
  0x10, 0x00, 0x00, 0x00, 0x0c, 0x00, 0x00, 0x00, 0x74, 0x66, 0x6c, 0x2e,
  0x63, 0x6f, 0x6e, 0x76, 0x5f, 0x32, 0x64, 0x31, 0x00, 0x00, 0x00, 0x00,
  0x74, 0xd4, 0xff, 0xff, 0x00, 0x00, 0x0e, 0x00, 0x1a, 0x00, 0x08, 0x00,
  0x0c, 0x00, 0x10, 0x00, 0x07, 0x00, 0x14, 0x00, 0x0e, 0x00, 0x00, 0x00,
  0x00, 0x00, 0x00, 0x05, 0x01, 0x00, 0x00, 0x00, 0x3c, 0x00, 0x00, 0x00,
  0x30, 0x00, 0x00, 0x00, 0x14, 0x00, 0x00, 0x00, 0x00, 0x00, 0x0e, 0x00,
  0x18, 0x00, 0x17, 0x00, 0x10, 0x00, 0x0c, 0x00, 0x08, 0x00, 0x04, 0x00,
  0x0e, 0x00, 0x00, 0x00, 0x03, 0x00, 0x00, 0x00, 0x03, 0x00, 0x00, 0x00,
  0x03, 0x00, 0x00, 0x00, 0x03, 0x00, 0x00, 0x00, 0x00, 0x00, 0x00, 0x01,
  0x01, 0x00, 0x00, 0x00, 0x0b, 0x00, 0x00, 0x00, 0x01, 0x00, 0x00, 0x00,
  0x0a, 0x00, 0x00, 0x00, 0x46, 0xff, 0xff, 0xff, 0x00, 0x00, 0x00, 0x11,
  0x01, 0x00, 0x00, 0x00, 0xda, 0xd4, 0xff, 0xff, 0x10, 0x00, 0x00, 0x00,
  0x0c, 0x00, 0x00, 0x00, 0x1c, 0x00, 0x00, 0x00, 0x40, 0x00, 0x00, 0x00,
  0x04, 0x00, 0x00, 0x00, 0x01, 0x00, 0x00, 0x00, 0x15, 0x00, 0x00, 0x00,
  0x01, 0x00, 0x00, 0x00, 0x08, 0x00, 0x00, 0x00, 0x20, 0x00, 0x00, 0x00,
  0x73, 0x65, 0x71, 0x75, 0x65, 0x6e, 0x74, 0x69, 0x61, 0x6c, 0x2f, 0x6d,
  0x61, 0x78, 0x5f, 0x70, 0x6f, 0x6f, 0x6c, 0x69, 0x6e, 0x67, 0x32, 0x64,
  0x2f, 0x4d, 0x61, 0x78, 0x50, 0x6f, 0x6f, 0x6c, 0x00, 0x00, 0x00, 0x00,
  0x34, 0xd5, 0xff, 0xff, 0x00, 0x00, 0x0e, 0x00, 0x14, 0x00, 0x00, 0x00,
  0x08, 0x00, 0x0c, 0x00, 0x07, 0x00, 0x10, 0x00, 0x0e, 0x00, 0x00, 0x00,
  0x00, 0x00, 0x00, 0x01, 0x30, 0x00, 0x00, 0x00, 0x24, 0x00, 0x00, 0x00,
  0x10, 0x00, 0x00, 0x00, 0x0c, 0x00, 0x10, 0x00, 0x00, 0x00, 0x04, 0x00,
  0x08, 0x00, 0x0f, 0x00, 0x0c, 0x00, 0x00, 0x00, 0x01, 0x00, 0x00, 0x00,
  0x01, 0x00, 0x00, 0x00, 0x00, 0x00, 0x00, 0x01, 0x01, 0x00, 0x00, 0x00,
  0x0a, 0x00, 0x00, 0x00, 0x03, 0x00, 0x00, 0x00, 0x00, 0x00, 0x00, 0x00,
  0x06, 0x00, 0x00, 0x00, 0x08, 0x00, 0x00, 0x00, 0x00, 0x00, 0x0a, 0x00,
  0x0c, 0x00, 0x07, 0x00, 0x00, 0x00, 0x08, 0x00, 0x0a, 0x00, 0x00, 0x00,
  0x00, 0x00, 0x00, 0x03, 0x01, 0x00, 0x00, 0x00, 0x9e, 0xd5, 0xff, 0xff,
  0x10, 0x00, 0x00, 0x00, 0x0b, 0x00, 0x00, 0x00, 0x1c, 0x00, 0x00, 0x00,
  0x28, 0x00, 0x00, 0x00, 0x04, 0x00, 0x00, 0x00, 0x01, 0x00, 0x00, 0x00,
  0x40, 0x00, 0x00, 0x00, 0x03, 0x00, 0x00, 0x00, 0x08, 0x00, 0x00, 0x00,
  0x0b, 0x00, 0x00, 0x00, 0x74, 0x66, 0x6c, 0x2e, 0x63, 0x6f, 0x6e, 0x76,
  0x5f, 0x32, 0x64, 0x00, 0x88, 0xd5, 0xff, 0xff, 0x7e, 0xd6, 0xff, 0xff,
  0x04, 0x00, 0x00, 0x00, 0x40, 0x00, 0x00, 0x00, 0x9d, 0x6b, 0x37, 0xbe,
  0x8e, 0x53, 0x38, 0x3f, 0xb5, 0x09, 0xb5, 0xbf, 0xe6, 0x98, 0x16, 0x3f,
  0x68, 0xf6, 0xbe, 0x3f, 0xd0, 0x35, 0x8e, 0xbc, 0xcb, 0x91, 0x8e, 0xbf,
  0xad, 0x26, 0x89, 0x40, 0x6b, 0x6c, 0x6c, 0xbf, 0x72, 0x07, 0xb8, 0xbf,
  0xe9, 0x69, 0xbb, 0xbf, 0xe9, 0x57, 0xa0, 0xbf, 0x3f, 0x48, 0x10, 0xbe,
  0x56, 0xeb, 0x6f, 0xbd, 0x8a, 0x0d, 0x9c, 0xbf, 0x2f, 0xfd, 0xf4, 0xbf,
  0x26, 0xd6, 0xff, 0xff, 0x10, 0x00, 0x00, 0x00, 0x0a, 0x00, 0x00, 0x00,
  0x10, 0x00, 0x00, 0x00, 0x20, 0x00, 0x00, 0x00, 0x01, 0x00, 0x00, 0x00,
  0x10, 0x00, 0x00, 0x00, 0x0d, 0x00, 0x00, 0x00, 0x73, 0x74, 0x64, 0x2e,
  0x63, 0x6f, 0x6e, 0x73, 0x74, 0x61, 0x6e, 0x74, 0x31, 0x00, 0x00, 0x00,
  0x08, 0xd6, 0xff, 0xff, 0xfe, 0xd6, 0xff, 0xff, 0x04, 0x00, 0x00, 0x00,
  0x20, 0x00, 0x00, 0x00, 0xcb, 0x7f, 0x8b, 0xbf, 0x09, 0x9c, 0xa6, 0xbf,
  0x61, 0x3a, 0x07, 0xbf, 0x12, 0x6a, 0xc3, 0xbf, 0x72, 0x54, 0x94, 0xbd,
  0xf6, 0x60, 0x40, 0xc0, 0xaa, 0xef, 0x26, 0xc0, 0xab, 0x22, 0xae, 0xbf,
  0x86, 0xd6, 0xff, 0xff, 0x10, 0x00, 0x00, 0x00, 0x09, 0x00, 0x00, 0x00,
  0x10, 0x00, 0x00, 0x00, 0x20, 0x00, 0x00, 0x00, 0x01, 0x00, 0x00, 0x00,
  0x08, 0x00, 0x00, 0x00, 0x0c, 0x00, 0x00, 0x00, 0x73, 0x74, 0x64, 0x2e,
  0x63, 0x6f, 0x6e, 0x73, 0x74, 0x61, 0x6e, 0x74, 0x00, 0x00, 0x00, 0x00,
  0x68, 0xd6, 0xff, 0xff, 0x5e, 0xd7, 0xff, 0xff, 0x04, 0x00, 0x00, 0x00,
  0x00, 0x08, 0x00, 0x00, 0x2f, 0xc7, 0xc3, 0xbb, 0x96, 0xf5, 0x76, 0x3e,
  0x1a, 0xdc, 0x69, 0xbe, 0xf6, 0x11, 0xd6, 0xbd, 0xfb, 0xbb, 0xd1, 0x3c,
  0x27, 0x2a, 0x0e, 0xbd, 0x5b, 0x1a, 0x7b, 0xbd, 0x1d, 0x80, 0x80, 0xbd,
  0xbc, 0x6b, 0x93, 0x3d, 0xb3, 0xf0, 0x55, 0xbe, 0x97, 0x1e, 0x83, 0xbd,
  0x4e, 0x06, 0x98, 0xbe, 0x63, 0xac, 0xdc, 0xbb, 0x01, 0xbe, 0x33, 0xbe,
  0x3d, 0xf7, 0x34, 0x3e, 0xb5, 0xf7, 0x76, 0x3e, 0xad, 0x2d, 0xb8, 0xbd,
  0x46, 0x01, 0x9c, 0xbe, 0x19, 0xcf, 0x59, 0xbe, 0x45, 0xc4, 0x9f, 0xbe,
  0x2e, 0x64, 0x37, 0xbd, 0x17, 0xf6, 0x5c, 0xbe, 0xcd, 0xe9, 0x28, 0x3e,
  0x98, 0x10, 0xb3, 0x3e, 0x12, 0x6d, 0x02, 0xbe, 0x0b, 0x23, 0xcb, 0x3b,
  0x8d, 0xdd, 0xd8, 0x3c, 0xf6, 0x8c, 0x0b, 0xbd, 0xd5, 0xcf, 0xf0, 0xbd,
  0x26, 0x31, 0x54, 0x3e, 0x53, 0xb9, 0x5b, 0xbd, 0x0f, 0x36, 0xac, 0x3e,
  0xee, 0x9f, 0x87, 0xbc, 0x38, 0x93, 0x35, 0x3d, 0x8e, 0x02, 0x91, 0x3d,
  0x18, 0xd4, 0xa9, 0x3d, 0xd4, 0xc0, 0x47, 0xbd, 0xc3, 0xc6, 0x22, 0x3d,
  0xdb, 0xcf, 0x75, 0xbe, 0x09, 0x96, 0x2b, 0xbe, 0x8f, 0xdd, 0x2c, 0xbd,
  0xe5, 0x3b, 0x2c, 0xbd, 0x04, 0x04, 0x74, 0x3c, 0xcb, 0x38, 0x93, 0x3e,
  0x12, 0xf5, 0x1d, 0x3e, 0xc1, 0x56, 0x46, 0x3a, 0xe6, 0x37, 0xc3, 0x3c,
  0x40, 0x0a, 0x82, 0xbc, 0x16, 0x4f, 0xc6, 0xbd, 0x4f, 0x47, 0x33, 0xbe,
  0xab, 0xc5, 0x55, 0xbe, 0xe8, 0xba, 0xb1, 0xbd, 0xd7, 0xee, 0xa5, 0xbd,
  0x39, 0xff, 0x45, 0x3d, 0xe1, 0x6f, 0x63, 0x3e, 0xd3, 0x4d, 0x41, 0xbd,
  0x6c, 0x4e, 0x28, 0x3e, 0x52, 0x0e, 0x78, 0x3d, 0x89, 0x74, 0x26, 0xbe,
  0x1e, 0x1a, 0xe0, 0xbd, 0xaf, 0x61, 0x93, 0xbd, 0x0b, 0x5a, 0x87, 0x3c,
  0x95, 0x08, 0xff, 0xbd, 0x76, 0x27, 0xa6, 0x3c, 0xe5, 0x02, 0x80, 0xbe,
  0x22, 0x88, 0x99, 0xbe, 0xe0, 0x5d, 0x2e, 0x3d, 0x09, 0x71, 0xca, 0xbd,
  0x48, 0x8c, 0x55, 0xbe, 0x1e, 0x6a, 0x63, 0xbd, 0xa5, 0xbc, 0x33, 0xbd,
  0x75, 0x0d, 0xa4, 0xbc, 0x4f, 0x19, 0x63, 0xbe, 0xc5, 0xca, 0x68, 0xbe,
  0x53, 0x59, 0x4e, 0x3c, 0xcb, 0xa7, 0x95, 0xbd, 0x11, 0x4a, 0x80, 0xbe,
  0x30, 0x66, 0xa4, 0x3e, 0x4b, 0x24, 0x1d, 0x3e, 0x84, 0x43, 0xee, 0xbd,
  0xb7, 0x62, 0x07, 0xbe, 0x10, 0x34, 0x2d, 0x3d, 0x72, 0x9d, 0x13, 0x3e,
  0x29, 0x9d, 0x1d, 0x3d, 0xe3, 0x7c, 0x3b, 0xbe, 0x29, 0xca, 0x8e, 0x3e,
  0xb1, 0xe2, 0x94, 0x3e, 0x4b, 0xe5, 0x7c, 0x3c, 0xce, 0x5a, 0x72, 0x3c,
  0x4d, 0x01, 0x0a, 0xbd, 0x8d, 0x1a, 0x25, 0xbd, 0x27, 0x39, 0xa5, 0x3e,
  0x88, 0x8c, 0x4f, 0xbe, 0xcf, 0x6b, 0x39, 0x3e, 0x18, 0xd1, 0x9b, 0x3e,
  0x54, 0xb7, 0xcf, 0x3d, 0xe4, 0x59, 0x12, 0xbe, 0x05, 0x19, 0x41, 0xbd,
  0x2f, 0x00, 0xcf, 0x3e, 0xe9, 0x8e, 0x2f, 0xbd, 0x3a, 0x05, 0xc4, 0xbd,
  0xbd, 0x15, 0x12, 0xbd, 0x8a, 0x8c, 0x0d, 0xbe, 0x2a, 0x36, 0x38, 0xbe,
  0xc1, 0x5d, 0xd6, 0xbd, 0xce, 0x25, 0xd9, 0xbc, 0x8b, 0xe7, 0x1e, 0x3e,
  0x35, 0x8a, 0x3e, 0xbe, 0x45, 0xa1, 0x29, 0xbe, 0x16, 0x57, 0x92, 0x3e,
  0x77, 0x77, 0xcf, 0x3c, 0x25, 0xb6, 0x7b, 0x3e, 0x8f, 0x07, 0xab, 0xbd,
  0xab, 0x9d, 0x29, 0xbc, 0x26, 0xd6, 0xb3, 0x3d, 0xcf, 0x45, 0x9f, 0xbd,
  0xb0, 0x2c, 0x9b, 0xbe, 0x72, 0x2a, 0xb0, 0xbe, 0xb6, 0x77, 0x37, 0x3d,
  0x42, 0x79, 0x9a, 0x3d, 0xd7, 0x1e, 0x80, 0x3c, 0xca, 0x47, 0x2c, 0xbe,
  0xca, 0x56, 0xda, 0xbd, 0x11, 0xf4, 0x69, 0x3d, 0x98, 0x33, 0xbe, 0xbe,
  0x31, 0x42, 0x98, 0x3d, 0x22, 0x32, 0x28, 0x3d, 0x70, 0xb5, 0x00, 0x3e,
  0xde, 0x4d, 0xb3, 0xbc, 0x1a, 0x5b, 0x05, 0xbb, 0x42, 0x41, 0x99, 0xbd,
  0x47, 0xa7, 0x2b, 0xbe, 0xc2, 0x23, 0xf5, 0xbc, 0x55, 0x6c, 0xe9, 0xbd,
  0x2d, 0xb6, 0x50, 0xbe, 0xd4, 0xe9, 0xb0, 0xbd, 0xa8, 0x9d, 0x53, 0xbd,
  0xe1, 0x3d, 0x98, 0xbe, 0x27, 0xd4, 0xb0, 0xbd, 0x12, 0xb4, 0xdb, 0xbd,
  0x40, 0xca, 0x95, 0x39, 0x68, 0x23, 0x5f, 0xbd, 0x64, 0x4d, 0xe6, 0x3e,
  0x6d, 0x5f, 0x8e, 0xbc, 0x5a, 0x69, 0x68, 0xbe, 0x1a, 0x6c, 0x9a, 0xbd,
  0xab, 0x65, 0x40, 0xbe, 0xa5, 0x80, 0xbc, 0x3d, 0x1d, 0x9a, 0xd7, 0xbe,
  0x58, 0x8d, 0x78, 0x3e, 0x49, 0x4c, 0xcb, 0xbe, 0x9f, 0x31, 0x41, 0xbe,
  0x9d, 0xf3, 0x3c, 0xbe, 0xe7, 0x1a, 0x32, 0xbc, 0x5f, 0x53, 0x88, 0xbd,
  0x21, 0x15, 0xdb, 0xbd, 0xf4, 0xd9, 0xac, 0xbe, 0x8d, 0x16, 0xd0, 0xbc,
  0x1f, 0x95, 0x73, 0x3d, 0x86, 0xe2, 0x65, 0xbe, 0x17, 0x35, 0x37, 0xbe,
  0x95, 0x59, 0x59, 0xbe, 0x05, 0xec, 0x96, 0xbe, 0xda, 0x4c, 0x5c, 0xbe,
  0x0a, 0xec, 0x3d, 0xbe, 0xb3, 0x60, 0x9b, 0x3e, 0x68, 0x9f, 0x10, 0x3e,
  0x11, 0x53, 0xa3, 0x3e, 0x46, 0x5b, 0x35, 0x3d, 0xd3, 0xd7, 0x74, 0x3e,
  0x92, 0x61, 0xb6, 0xbe, 0xc6, 0xab, 0x64, 0xbd, 0x72, 0x12, 0xa9, 0xbd,
  0xe7, 0xc5, 0x59, 0xbd, 0x0a, 0xeb, 0x26, 0xbe, 0x54, 0x22, 0xa6, 0x3d,
  0xdb, 0xa7, 0x5c, 0x3c, 0x3a, 0xa8, 0xda, 0x3c, 0x96, 0x78, 0xe4, 0xbe,
  0x49, 0x29, 0x93, 0xbe, 0xf3, 0xf5, 0x2e, 0x3d, 0x61, 0x87, 0x05, 0x3d,
  0x7b, 0xf8, 0xcd, 0xbd, 0xd8, 0x51, 0x3e, 0x3e, 0x92, 0x81, 0xc7, 0xbd,
  0x58, 0x22, 0x99, 0x3e, 0xa1, 0x98, 0x83, 0xbe, 0xa4, 0xc5, 0x7b, 0xbe,
  0x31, 0xb3, 0xd2, 0x3c, 0xb4, 0xb3, 0x00, 0x3e, 0xf4, 0x2c, 0x4c, 0x3d,
  0xde, 0x68, 0x9f, 0x3e, 0x5e, 0xe0, 0xef, 0xbc, 0xab, 0x6f, 0x8c, 0xbe,
  0x4f, 0x53, 0x3d, 0xbc, 0x16, 0x1a, 0xc2, 0x3d, 0x82, 0xc0, 0xc8, 0xbd,
  0x48, 0x55, 0x0d, 0x3f, 0x18, 0xf1, 0x13, 0x3e, 0xf1, 0xb3, 0xbc, 0x3c,
  0x4e, 0x90, 0x30, 0xbe, 0xd6, 0x76, 0xc8, 0x3d, 0x89, 0x87, 0x11, 0x3b,
  0x97, 0x02, 0x40, 0x3d, 0x8b, 0x9f, 0x2a, 0xbe, 0x20, 0x5f, 0xa3, 0x3e,
  0x6b, 0x4b, 0xa1, 0x3e, 0x2f, 0xe5, 0xb2, 0xbe, 0xf6, 0x6b, 0x98, 0xbe,
  0x53, 0xca, 0x81, 0xbd, 0x17, 0xe2, 0x2d, 0x3c, 0x03, 0x6c, 0xd6, 0xbd,
  0xae, 0x7e, 0xcf, 0xbd, 0x11, 0xf8, 0x4d, 0x3e, 0x41, 0x01, 0x4e, 0x3e,
  0xba, 0x6b, 0x69, 0xbe, 0xb1, 0x8a, 0x83, 0xbe, 0xf9, 0x19, 0x65, 0xbd,
  0x87, 0x1f, 0x63, 0x3c, 0x23, 0x7b, 0xf9, 0xbd, 0x19, 0x91, 0x2e, 0xbd,
  0x8e, 0x83, 0x85, 0x3e, 0xb8, 0xf8, 0xcd, 0x3d, 0x76, 0x69, 0xe4, 0x3d,
  0xbb, 0xc2, 0x9f, 0x3d, 0x8f, 0xb5, 0x30, 0x3d, 0xf5, 0x2b, 0x06, 0xbd,
  0x77, 0xae, 0xba, 0xbf, 0xea, 0x9a, 0xfe, 0x3d, 0x19, 0x45, 0xd2, 0xbe,
  0x94, 0x79, 0x92, 0xbd, 0xe3, 0xe2, 0xa9, 0xbe, 0x62, 0xd3, 0x24, 0x3d,
  0x2e, 0x94, 0x0f, 0x3e, 0x24, 0xe4, 0x82, 0xbe, 0x65, 0x1f, 0xbc, 0xbf,
  0xa4, 0x60, 0x30, 0x3d, 0xa9, 0x29, 0x79, 0xbf, 0x77, 0x3c, 0x37, 0x3d,
  0xfc, 0x09, 0x14, 0x3e, 0xa5, 0x8f, 0xe6, 0xbe, 0x4a, 0x30, 0xa1, 0xbe,
  0x31, 0x1e, 0xb8, 0xbe, 0xcd, 0x60, 0x31, 0xbe, 0xb0, 0x58, 0x20, 0xbe,
  0xbe, 0x96, 0xb2, 0xbe, 0x93, 0x8f, 0x2e, 0x3e, 0xc5, 0xc8, 0x98, 0xbe,
  0x8e, 0x2a, 0x6c, 0xbe, 0xa0, 0x71, 0x12, 0xbf, 0x14, 0x7f, 0x39, 0xbe,
  0xd2, 0x80, 0x2e, 0xbe, 0xef, 0x9f, 0x0c, 0xbe, 0x5b, 0xfc, 0x6c, 0xbe,
  0xae, 0xe5, 0x57, 0x3d, 0x21, 0x1f, 0x9f, 0xbe, 0xef, 0x90, 0xe3, 0xbe,
  0x32, 0x83, 0x27, 0xbf, 0x2c, 0xbf, 0xeb, 0xbb, 0xc7, 0xc9, 0x44, 0xbd,
  0x03, 0xe6, 0xa8, 0x3c, 0x87, 0x6a, 0xc5, 0xbe, 0x89, 0x1c, 0x84, 0xbe,
  0x62, 0x30, 0xb4, 0xbe, 0x1e, 0x0b, 0xf9, 0xbe, 0xca, 0x85, 0x96, 0x3d,
  0x6a, 0x61, 0xcd, 0x3b, 0x00, 0x30, 0x8e, 0xbe, 0xe2, 0x76, 0x33, 0xbe,
  0xd0, 0x01, 0x9f, 0x3e, 0x39, 0x58, 0xb9, 0x3d, 0xf4, 0x17, 0x9c, 0xbe,
  0xd1, 0x97, 0xc9, 0xbe, 0x60, 0x55, 0x0b, 0x3d, 0x30, 0xe4, 0x8d, 0x3d,
  0x69, 0x85, 0x75, 0xbe, 0xbb, 0x81, 0x68, 0xbe, 0x6e, 0x34, 0xf7, 0x3e,
  0x31, 0x45, 0x34, 0x3e, 0x6b, 0xcd, 0xa7, 0x3c, 0xdc, 0xd1, 0x43, 0xbe,
  0xfd, 0x9a, 0x87, 0xbd, 0xd9, 0x13, 0x05, 0xbe, 0xe6, 0x81, 0xce, 0x3c,
  0x78, 0x2a, 0x69, 0xbe, 0x4b, 0xf1, 0xd1, 0x3d, 0x00, 0x3a, 0x91, 0x3d,
  0x8a, 0xf2, 0xb0, 0x3e, 0x3a, 0xa1, 0x22, 0xbf, 0x11, 0xf8, 0x35, 0x3e,
  0x0b, 0xbd, 0xb5, 0xbd, 0xed, 0x1b, 0x7b, 0xbe, 0x08, 0x68, 0x90, 0xbe,
  0x27, 0x0d, 0x09, 0x3f, 0x14, 0x80, 0xe7, 0x3d, 0xee, 0xd9, 0x10, 0x3d,
  0x08, 0x73, 0x0f, 0xbf, 0x29, 0x85, 0xb6, 0x3e, 0x98, 0x70, 0x02, 0x3e,
  0xe1, 0xd5, 0xbc, 0xbe, 0xa4, 0xdd, 0xc1, 0xbe, 0x7a, 0xf4, 0x7f, 0xbe,
  0x21, 0xc5, 0x82, 0x3e, 0x85, 0x94, 0xc9, 0x3d, 0x73, 0x41, 0x44, 0xbe,
  0x84, 0xaf, 0x06, 0xbd, 0xe2, 0x19, 0x75, 0xbd, 0xe1, 0x3b, 0xe3, 0x3d,
  0x9c, 0xc9, 0x91, 0xbe, 0x52, 0xcc, 0xde, 0x3c, 0x27, 0x84, 0x85, 0x3e,
  0xf6, 0x10, 0x2c, 0x3d, 0xce, 0x88, 0x84, 0x3c, 0xf7, 0xb0, 0xaa, 0xbc,
  0xb1, 0x50, 0xe2, 0x3b, 0xb9, 0x09, 0x9b, 0x3d, 0x6b, 0x5c, 0x1b, 0xbe,
  0xb3, 0x39, 0xff, 0x3d, 0x9a, 0x74, 0xc2, 0xbc, 0xb3, 0x61, 0xf9, 0x3d,
  0xa8, 0xa7, 0xed, 0xbc, 0x2d, 0xe6, 0x1b, 0x3e, 0xaa, 0x5f, 0x86, 0xbd,
  0xa0, 0xf0, 0xa3, 0xbd, 0xea, 0xea, 0x59, 0x3b, 0xdc, 0x0e, 0xc7, 0x3e,
  0x54, 0x8b, 0x43, 0x3f, 0x09, 0x59, 0xff, 0x3e, 0xdb, 0xe9, 0x65, 0xbd,
  0x0c, 0x19, 0xaa, 0xbd, 0xf0, 0x77, 0x96, 0xbd, 0x49, 0x46, 0x98, 0x3a,
  0x05, 0xec, 0x2e, 0xbe, 0xb3, 0xed, 0xc7, 0x3c, 0xd2, 0xac, 0x81, 0xbc,
  0x66, 0x69, 0xbf, 0xbc, 0xc7, 0xda, 0x5a, 0xbc, 0xe9, 0x97, 0x1f, 0xbe,
  0xb7, 0x05, 0x0d, 0xbe, 0xd7, 0xf0, 0xba, 0xbd, 0x49, 0xb8, 0x0f, 0xbe,
  0xca, 0x44, 0x9d, 0x3c, 0x57, 0x96, 0xa9, 0xbc, 0x5a, 0x5d, 0x74, 0xbb,
  0x2f, 0x4b, 0x3e, 0xbd, 0x55, 0x2b, 0xa6, 0x3e, 0x14, 0x41, 0x5b, 0xbe,
  0x1e, 0x81, 0x9b, 0xbd, 0x65, 0x01, 0x39, 0xbe, 0xde, 0x04, 0x3a, 0xbd,
  0x71, 0x70, 0x97, 0xbe, 0x55, 0x64, 0x79, 0xbe, 0x8e, 0x0d, 0xd3, 0xbd,
  0x3d, 0x56, 0x3b, 0xbe, 0xaa, 0x23, 0xc3, 0xbd, 0x3f, 0x1e, 0xa4, 0xbd,
  0xbf, 0xe9, 0xab, 0xbd, 0x92, 0xdf, 0x5b, 0x3c, 0x5b, 0xc8, 0xb4, 0x3e,
  0x69, 0xd8, 0xf6, 0x3c, 0x18, 0x43, 0x90, 0xbd, 0x20, 0xc1, 0x11, 0x3b,
  0xdd, 0x11, 0xe2, 0xbd, 0x9a, 0xe8, 0xa2, 0xbd, 0xdc, 0x2f, 0x8a, 0xbd,
  0x79, 0xaa, 0x43, 0x3e, 0x37, 0xb9, 0xab, 0x3d, 0x00, 0x41, 0xe1, 0xbd,
  0xcf, 0xf7, 0x1b, 0xbd, 0xcc, 0x60, 0xc7, 0xbd, 0xff, 0xf9, 0x7e, 0xbd,
  0x06, 0x07, 0x7c, 0xbd, 0x90, 0x9f, 0xb1, 0xbc, 0xa0, 0x7f, 0x05, 0xbe,
  0x10, 0xca, 0xb4, 0x3e, 0x10, 0x77, 0xd4, 0x3e, 0xd1, 0xbc, 0xdf, 0xbc,
  0x87, 0x29, 0x00, 0x3e, 0x70, 0x2d, 0xdc, 0xbc, 0x91, 0x43, 0x2f, 0xbc,
  0xdc, 0x2e, 0x2a, 0xbd, 0xef, 0x63, 0x54, 0x3c, 0x32, 0x3c, 0x26, 0x3e,
  0x5a, 0xd2, 0x0d, 0x3f, 0x3b, 0x7a, 0x4b, 0xbe, 0xc5, 0x49, 0xbe, 0xbe,
  0x4a, 0x05, 0x90, 0xbe, 0x0f, 0x92, 0x5d, 0xbe, 0xb3, 0xa1, 0x76, 0xbe,
  0xd2, 0xb3, 0x9a, 0x3e, 0x95, 0x9a, 0xf2, 0x3d, 0x90, 0x40, 0x51, 0xbe,
  0x62, 0x3e, 0xb5, 0xbe, 0x5e, 0x54, 0x7d, 0xbe, 0x3f, 0xda, 0xed, 0x3d,
  0x17, 0x85, 0x6a, 0xbe, 0x6b, 0x93, 0x2c, 0xbe, 0x7e, 0x70, 0xba, 0x3d,
  0xd2, 0xf0, 0xf5, 0x3c, 0xae, 0x17, 0x89, 0x3d, 0x8b, 0x2f, 0x58, 0xbe,
  0x38, 0xec, 0x60, 0xbe, 0x9b, 0xb6, 0x20, 0x3e, 0x0c, 0xc6, 0x53, 0xbd,
  0x07, 0x7c, 0x53, 0xbb, 0x46, 0xa9, 0x8c, 0xbe, 0x59, 0x5d, 0x86, 0x3d,
  0xaa, 0x67, 0x03, 0x3e, 0x44, 0x9a, 0x86, 0x3e, 0x78, 0xbf, 0x92, 0x3d,
  0x01, 0x5f, 0xd3, 0x3d, 0xfb, 0xe1, 0x96, 0x3e, 0x34, 0x5d, 0x03, 0x3e,
  0x8b, 0x0e, 0xf5, 0x3b, 0x66, 0x5d, 0x2b, 0x3d, 0xc0, 0xd9, 0x87, 0x3e,
  0x94, 0xd1, 0x6e, 0x3b, 0x58, 0x54, 0x18, 0xbe, 0xbb, 0xbb, 0x3d, 0xbd,
  0xc7, 0x1a, 0x1a, 0x3e, 0x47, 0xbd, 0xcf, 0xbc, 0x06, 0xae, 0xe3, 0x3e,
  0xa4, 0x14, 0xbc, 0x3e, 0x7e, 0x17, 0xc0, 0xbd, 0x8e, 0x6a, 0xff, 0xbd,
  0x22, 0x38, 0x5c, 0xbe, 0xdc, 0xc1, 0xd2, 0xbd, 0x52, 0xcd, 0x30, 0xb9,
  0xbc, 0x33, 0x70, 0xbd, 0x51, 0xaf, 0x67, 0x3c, 0x33, 0x6d, 0x61, 0x3c,
  0x4e, 0xcf, 0xcf, 0xbe, 0xe8, 0x1b, 0x26, 0xbe, 0x8a, 0x44, 0x9e, 0xbe,
  0xdf, 0xa6, 0x46, 0xbd, 0xc6, 0x4f, 0x6e, 0x3d, 0xa4, 0xe8, 0xed, 0x3d,
  0xd2, 0x7f, 0xad, 0xbc, 0x7a, 0xa1, 0xba, 0x3c, 0x52, 0x85, 0xa6, 0xbc,
  0x3a, 0x6d, 0x60, 0xbe, 0x70, 0x97, 0xbb, 0xbe, 0x16, 0x69, 0x47, 0xbe,
  0x8d, 0xc9, 0x5a, 0x3e, 0x18, 0xed, 0x83, 0x3e, 0xa3, 0x9a, 0xdb, 0xbd,
  0x77, 0xb1, 0x09, 0xbe, 0x12, 0x29, 0xe8, 0xbc, 0xed, 0xa8, 0xab, 0x3e,
  0x2c, 0xd5, 0x99, 0x3d, 0xa6, 0xc4, 0x5d, 0x3d, 0x06, 0x25, 0x9a, 0x3e,
  0x21, 0xe1, 0x60, 0x3d, 0x45, 0xcd, 0x03, 0x3f, 0x2b, 0x0f, 0xf0, 0x3e,
  0x59, 0xa6, 0xf0, 0xbd, 0x2c, 0xd7, 0x8f, 0xbd, 0x38, 0x62, 0x28, 0xbe,
  0x53, 0x1a, 0xcf, 0xbd, 0xe9, 0x27, 0x77, 0x3c, 0x5d, 0x08, 0x8a, 0xbe,
  0x1e, 0x6b, 0xbb, 0x3d, 0xb2, 0xe5, 0x1e, 0x3e, 0xe9, 0xcc, 0xaf, 0xbe,
  0x5b, 0x5a, 0x2c, 0xbe, 0x76, 0x78, 0x5d, 0xbe, 0x04, 0xad, 0x1c, 0xbe,
  0x2c, 0xd2, 0x0b, 0xbe, 0x61, 0x07, 0x97, 0xbe, 0xaf, 0xe2, 0x25, 0x3e,
  0x49, 0x51, 0x8c, 0x3e, 0xed, 0x8c, 0xec, 0xbe, 0xa9, 0x9d, 0x87, 0xbe,
  0xff, 0xf0, 0x90, 0xbe, 0x79, 0x24, 0x21, 0x3d, 0x2d, 0xb0, 0x08, 0xbe,
  0x20, 0x12, 0x31, 0xbe, 0x83, 0xb2, 0x0f, 0x3e, 0xbd, 0x8d, 0x04, 0x3e,
  0x80, 0x49, 0xd1, 0xbe, 0xc1, 0x63, 0x9f, 0xbe, 0x85, 0x76, 0xe3, 0xbd,
  0x57, 0x5e, 0xa7, 0xbc, 0x93, 0xbc, 0x80, 0xbe, 0xde, 0x15, 0xe8, 0xbc,
  0x36, 0x4e, 0x67, 0x3c, 0xa1, 0x79, 0xaa, 0xbd, 0xf0, 0x24, 0x20, 0xbf,
  0x06, 0xdb, 0x09, 0xbf, 0xe7, 0x8b, 0x2e, 0x3f, 0x7f, 0xb1, 0xb2, 0x3c,
  0x51, 0x84, 0x09, 0xbf, 0x2a, 0x2c, 0xf3, 0xbd, 0x7c, 0x45, 0xaf, 0x3e,
  0x59, 0x19, 0xd4, 0xbc, 0x49, 0x24, 0xdb, 0xbd, 0xe1, 0x59, 0x78, 0xbe,
  0xe8, 0x2b, 0xcb, 0xbe, 0x0e, 0xe7, 0x3e, 0xbd, 0xac, 0x03, 0xf3, 0xbd,
  0xa4, 0x60, 0x19, 0xbe, 0x56, 0xc7, 0x88, 0xbe, 0x82, 0x27, 0x26, 0x3e,
  0xbc, 0x6a, 0x14, 0xbd, 0x30, 0x5c, 0x5f, 0x3e, 0x5c, 0x0e, 0x66, 0xbe,
  0x9e, 0x32, 0x74, 0xbd, 0x08, 0xea, 0x79, 0x3e, 0x04, 0xc8, 0x72, 0xbd,
  0x83, 0xbc, 0xe4, 0xbd, 0xda, 0x53, 0x74, 0x3d, 0x2d, 0x50, 0x6d, 0xbd,
  0xc6, 0xde, 0xff, 0xff, 0x10, 0x00, 0x00, 0x00, 0x08, 0x00, 0x00, 0x00,
  0x1c, 0x00, 0x00, 0x00, 0x38, 0x00, 0x00, 0x00, 0x04, 0x00, 0x00, 0x00,
  0x10, 0x00, 0x00, 0x00, 0x04, 0x00, 0x00, 0x00, 0x01, 0x00, 0x00, 0x00,
  0x08, 0x00, 0x00, 0x00, 0x1a, 0x00, 0x00, 0x00, 0x73, 0x65, 0x71, 0x75,
  0x65, 0x6e, 0x74, 0x69, 0x61, 0x6c, 0x2f, 0x63, 0x6f, 0x6e, 0x76, 0x32,
  0x64, 0x5f, 0x31, 0x2f, 0x43, 0x6f, 0x6e, 0x76, 0x32, 0x44, 0x00, 0x00,
  0xc0, 0xde, 0xff, 0xff, 0xb6, 0xdf, 0xff, 0xff, 0x04, 0x00, 0x00, 0x00,
  0x80, 0x01, 0x00, 0x00, 0x2f, 0x4a, 0x3e, 0xbd, 0x22, 0xfd, 0x00, 0xbe,
  0x9e, 0x67, 0x8a, 0xbc, 0x7e, 0x65, 0xa4, 0xbd, 0x7c, 0x2b, 0x7d, 0xbd,
  0x77, 0xb0, 0xb9, 0x3d, 0x74, 0xd0, 0x98, 0xbd, 0x15, 0x5e, 0x35, 0xbc,
  0x74, 0x69, 0x87, 0x3d, 0xd9, 0x63, 0xc1, 0xbd, 0xdf, 0x1f, 0xa4, 0x3c,
  0xc1, 0x86, 0x06, 0x3d, 0xdf, 0x8b, 0xb2, 0xbc, 0xde, 0x2e, 0xfb, 0x3c,
  0x18, 0x18, 0x84, 0xbd, 0x21, 0xb6, 0x91, 0xbd, 0x81, 0x19, 0xfb, 0xbd,
  0xaa, 0xc3, 0xfa, 0xbe, 0x38, 0xeb, 0xa7, 0xbc, 0xc6, 0x67, 0xd9, 0xbc,
  0x3b, 0x23, 0x85, 0x3e, 0xca, 0x0f, 0x4d, 0x3d, 0x72, 0x30, 0x5e, 0x3e,
  0xe2, 0x1d, 0xa5, 0x3e, 0x14, 0xd5, 0x58, 0xbd, 0x33, 0xb8, 0x21, 0x3a,
  0xec, 0xda, 0x2b, 0xbe, 0xab, 0x90, 0xc1, 0x3e, 0x97, 0xea, 0x56, 0x3c,
  0xa7, 0xc7, 0xf7, 0xbc, 0x7d, 0xae, 0xaf, 0x3e, 0x5d, 0x0f, 0xb0, 0x3b,
  0xfe, 0x38, 0x1d, 0xbc, 0x78, 0xb1, 0x38, 0x3d, 0xaf, 0xbe, 0x50, 0xbb,
  0xb1, 0xb2, 0x52, 0xbc, 0x28, 0xa3, 0xa0, 0xbd, 0xd9, 0xa4, 0x25, 0x3d,
  0x88, 0x7e, 0x81, 0xbe, 0x0c, 0xf7, 0xea, 0xbd, 0x8d, 0x31, 0xe1, 0xbd,
  0x1e, 0xf9, 0xa4, 0xbd, 0x07, 0x42, 0xef, 0x3d, 0x59, 0xbc, 0x40, 0xbe,
  0xf8, 0x10, 0x9d, 0x3c, 0x6e, 0xaf, 0xf1, 0xbd, 0xec, 0x4c, 0xfc, 0xbd,
  0xba, 0x38, 0xe5, 0x3d, 0xef, 0x33, 0x21, 0x3b, 0x4e, 0xa5, 0x2d, 0x3d,
  0x5e, 0x31, 0x96, 0xbd, 0xf3, 0x1d, 0x1a, 0xbd, 0x70, 0xb7, 0xf6, 0x3c,
  0x74, 0x96, 0x6f, 0xbd, 0x65, 0x31, 0xbf, 0x3b, 0xa4, 0x15, 0xd5, 0x3d,
  0x6c, 0x44, 0x85, 0xbd, 0x9a, 0x91, 0x76, 0x3d, 0x5b, 0xa6, 0x8c, 0x3c,
  0x50, 0x9b, 0x98, 0xbd, 0xe6, 0x06, 0x6a, 0xbe, 0x4a, 0x4b, 0x16, 0x3c,
  0x5e, 0xf0, 0xcf, 0xbc, 0x67, 0x1a, 0xee, 0xbe, 0xc6, 0xe3, 0x07, 0xbe,
  0x09, 0x55, 0xdf, 0xbd, 0x1a, 0x05, 0xe4, 0x3b, 0x82, 0x1e, 0xbf, 0xbd,
  0x97, 0xea, 0xda, 0x39, 0x23, 0x09, 0x2a, 0x3f, 0x62, 0xd5, 0x41, 0x3e,
  0x3f, 0x15, 0xc6, 0x3d, 0x11, 0xa9, 0x61, 0xbe, 0x2d, 0x28, 0x31, 0x3d,
  0x8f, 0x43, 0x8b, 0x3d, 0x06, 0x2c, 0xb6, 0xbe, 0x35, 0x44, 0xb5, 0x3e,
  0x0f, 0x60, 0x20, 0x3e, 0x5e, 0x5e, 0x85, 0xbd, 0x6e, 0x5b, 0x3b, 0xbe,
  0x46, 0x07, 0x9e, 0xbe, 0xb0, 0x03, 0x2f, 0x3f, 0xcc, 0xe5, 0x39, 0xbe,
  0xda, 0xa5, 0xb3, 0x3d, 0x2a, 0xae, 0xc0, 0x3d, 0xe4, 0x36, 0xfa, 0x3c,
  0xc4, 0x3f, 0x9e, 0x3e, 0xf3, 0x80, 0xf2, 0xbd, 0xb3, 0x0b, 0xb7, 0x3e,
  0x97, 0xc8, 0x21, 0x3e, 0x58, 0x6d, 0x4a, 0x3e, 0x6f, 0xf9, 0x41, 0xbe,
  0x7f, 0xf8, 0xc2, 0xbd, 0xca, 0x56, 0x70, 0xbe, 0xfb, 0x73, 0x8a, 0xbe,
  0x24, 0x86, 0xa0, 0xbe, 0x9e, 0xe0, 0xff, 0xff, 0x10, 0x00, 0x00, 0x00,
  0x07, 0x00, 0x00, 0x00, 0x1c, 0x00, 0x00, 0x00, 0x38, 0x00, 0x00, 0x00,
  0x04, 0x00, 0x00, 0x00, 0x08, 0x00, 0x00, 0x00, 0x04, 0x00, 0x00, 0x00,
  0x03, 0x00, 0x00, 0x00, 0x01, 0x00, 0x00, 0x00, 0x18, 0x00, 0x00, 0x00,
  0x73, 0x65, 0x71, 0x75, 0x65, 0x6e, 0x74, 0x69, 0x61, 0x6c, 0x2f, 0x63,
  0x6f, 0x6e, 0x76, 0x32, 0x64, 0x2f, 0x43, 0x6f, 0x6e, 0x76, 0x32, 0x44,
  0x00, 0x00, 0x00, 0x00, 0x98, 0xe0, 0xff, 0xff, 0x8e, 0xe1, 0xff, 0xff,
  0x04, 0x00, 0x00, 0x00, 0x00, 0x01, 0x00, 0x00, 0x4c, 0xdd, 0x68, 0x3e,
  0x5d, 0x70, 0xaa, 0x3e, 0x01, 0xdf, 0x05, 0xbf, 0xce, 0x71, 0x92, 0x3d,
  0x83, 0x7e, 0x1c, 0x3e, 0xef, 0xcb, 0x66, 0x3e, 0x28, 0x09, 0x23, 0xbe,
  0xd7, 0xc9, 0xee, 0xbe, 0xc3, 0xfb, 0x80, 0x3e, 0x2d, 0xa8, 0x18, 0xbe,
  0x27, 0x3b, 0x91, 0x3e, 0xbb, 0x23, 0xff, 0xbd, 0x6a, 0x55, 0x03, 0x3e,
  0xfd, 0xf3, 0xd6, 0xbd, 0x67, 0xef, 0x06, 0xbf, 0x06, 0x9b, 0x98, 0xbe,
  0x5c, 0xaa, 0x6f, 0x3e, 0x44, 0x6f, 0xc7, 0x3e, 0x01, 0x81, 0xef, 0xbe,
  0xfa, 0xb0, 0x61, 0x3d, 0x7e, 0xb2, 0x09, 0x3e, 0x31, 0x13, 0x8a, 0x3e,
  0xc6, 0x5e, 0x1a, 0xbe, 0xfc, 0xa0, 0x6b, 0x3e, 0xc5, 0xef, 0x3c, 0x3e,
  0x20, 0x86, 0x59, 0xbe, 0x6d, 0x41, 0x7a, 0x3e, 0x7c, 0x05, 0x09, 0xbf,
  0xa4, 0x03, 0x1e, 0x3e, 0x50, 0x67, 0x8a, 0xbd, 0xaf, 0xb1, 0x5c, 0xbd,
  0xcf, 0x0a, 0xa6, 0xbe, 0x16, 0x62, 0x70, 0x3e, 0x0a, 0xc6, 0x97, 0x3e,
  0x54, 0x72, 0xba, 0xbc, 0xa9, 0x0c, 0xc4, 0x3d, 0x10, 0xb6, 0x23, 0x3e,
  0xbd, 0xbf, 0x5a, 0x3e, 0x78, 0x05, 0xcf, 0x3d, 0xb4, 0x7f, 0x70, 0x3e,
  0xa3, 0xc6, 0x9e, 0x3e, 0x4f, 0xcf, 0x20, 0x3d, 0x8f, 0x0b, 0x6b, 0x3e,
  0xe8, 0x3d, 0x22, 0xbf, 0x4d, 0x1e, 0x75, 0x3e, 0xd8, 0x86, 0x01, 0xbe,
  0xc6, 0x56, 0x86, 0x3d, 0x98, 0xb6, 0x5b, 0xbe, 0xe5, 0xd4, 0x8a, 0x3e,
  0xb5, 0x79, 0xa2, 0x3e, 0x30, 0x57, 0x03, 0xbc, 0x39, 0xc5, 0x12, 0x3e,
  0xfb, 0x37, 0x49, 0x3e, 0x7a, 0x4c, 0x5d, 0x3e, 0x14, 0x7e, 0x6c, 0x3d,
  0x96, 0x4f, 0x88, 0x3e, 0x53, 0xf4, 0xb0, 0x3e, 0xd6, 0x8e, 0xea, 0xbc,
  0x5e, 0xc0, 0x66, 0x3e, 0x61, 0xfa, 0x80, 0xbe, 0xca, 0xb4, 0x1b, 0x3e,
  0xd6, 0x7a, 0x01, 0xbe, 0xee, 0xaf, 0x94, 0x3d, 0x00, 0x2a, 0x86, 0xbe,
  0xf6, 0xe1, 0xff, 0xff, 0x10, 0x00, 0x00, 0x00, 0x06, 0x00, 0x00, 0x00,
  0x14, 0x00, 0x00, 0x00, 0x30, 0x00, 0x00, 0x00, 0x02, 0x00, 0x00, 0x00,
  0x04, 0x00, 0x00, 0x00, 0x10, 0x00, 0x00, 0x00, 0x19, 0x00, 0x00, 0x00,
  0x73, 0x65, 0x71, 0x75, 0x65, 0x6e, 0x74, 0x69, 0x61, 0x6c, 0x2f, 0x64,
  0x65, 0x6e, 0x73, 0x65, 0x5f, 0x31, 0x2f, 0x4d, 0x61, 0x74, 0x4d, 0x75,
  0x6c, 0x00, 0x00, 0x00, 0xe8, 0xe1, 0xff, 0xff, 0xde, 0xe2, 0xff, 0xff,
  0x04, 0x00, 0x00, 0x00, 0x00, 0x1c, 0x00, 0x00, 0xe8, 0x2a, 0xd1, 0xbe,
  0x3b, 0x5b, 0x74, 0x3d, 0xba, 0x28, 0x13, 0xbe, 0x1a, 0x72, 0xcf, 0x3c,
  0x6a, 0xa3, 0x05, 0x3e, 0x81, 0x36, 0x8e, 0xbd, 0x7b, 0x6c, 0x63, 0xbe,
  0x93, 0x6a, 0x9e, 0xbe, 0x1e, 0xf7, 0xb4, 0x3c, 0x9f, 0x0d, 0x7c, 0xbe,
  0xc5, 0xce, 0xb2, 0xbe, 0xae, 0x08, 0x03, 0xbf, 0x8c, 0x93, 0x2e, 0x3e,
  0xb5, 0x2c, 0xc7, 0x3c, 0x21, 0x7e, 0x85, 0xbe, 0x0f, 0xc8, 0x59, 0xbe,
  0x9d, 0x61, 0x46, 0x3e, 0x3d, 0xe9, 0xfe, 0x3d, 0xed, 0x14, 0x66, 0x3e,
  0x7e, 0x0e, 0xcf, 0xbd, 0x8e, 0x95, 0xc4, 0xbc, 0x36, 0x2b, 0x91, 0x3c,
  0xf5, 0xec, 0xc9, 0xbd, 0x34, 0x3f, 0x89, 0xbe, 0x41, 0x5b, 0x88, 0x3e,
  0x24, 0x32, 0x64, 0xbd, 0x2c, 0x81, 0x09, 0xbf, 0xd9, 0x39, 0x5a, 0xbe,
  0xe7, 0x5a, 0x6b, 0x3e, 0x2a, 0xc2, 0xc5, 0x3c, 0xa1, 0xb2, 0x78, 0xbe,
  0xc9, 0x75, 0xde, 0x3e, 0xa5, 0x54, 0xd5, 0x3d, 0x3f, 0x88, 0x6a, 0x3c,
  0x1a, 0xed, 0xb1, 0x3d, 0xb3, 0x4f, 0xe2, 0x3c, 0x8c, 0x70, 0xa1, 0xbe,
  0x91, 0xaa, 0x3c, 0x3d, 0xe5, 0x9d, 0x1d, 0xbe, 0xd7, 0x78, 0xa7, 0xbe,
  0xe0, 0x3c, 0xc9, 0x3e, 0x58, 0x8b, 0x00, 0x3e, 0x72, 0xa3, 0x96, 0xbe,
  0x01, 0xc3, 0x8d, 0xbe, 0xca, 0x9d, 0x36, 0xbe, 0x00, 0x31, 0xd2, 0x3d,
  0xb5, 0xba, 0xf9, 0xbd, 0xa3, 0x53, 0x33, 0x3e, 0x69, 0x16, 0x81, 0x3d,
  0x4c, 0xd9, 0xd2, 0x3b, 0xd8, 0x97, 0x4e, 0x3d, 0xa2, 0xac, 0xdd, 0x3c,
  0xfc, 0x89, 0x31, 0xbe, 0xb4, 0x26, 0xf3, 0xbb, 0xdd, 0x93, 0x18, 0xbe,
  0x35, 0x5a, 0x9b, 0xbe, 0xa5, 0x82, 0x3c, 0xbd, 0x15, 0x42, 0x54, 0x3e,
  0xf9, 0x93, 0x9b, 0xbe, 0x6d, 0xfb, 0x8a, 0xbe, 0xd0, 0xcd, 0x78, 0xbd,
  0x6d, 0xf3, 0xca, 0x3c, 0x05, 0xa0, 0x07, 0x3e, 0x81, 0x18, 0x8c, 0x3e,
  0x11, 0xbb, 0x37, 0xbd, 0xb8, 0x36, 0x2e, 0x3c, 0xd5, 0x75, 0xd7, 0xbd,
  0x26, 0x7d, 0xee, 0x3c, 0x91, 0xc2, 0x99, 0xbd, 0x1f, 0x16, 0x6a, 0x3e,
  0x39, 0x91, 0x09, 0xbe, 0x14, 0xe6, 0x9c, 0xbe, 0xfb, 0x1f, 0xaa, 0x3c,
  0x98, 0xf9, 0x8b, 0x3e, 0xc6, 0xa0, 0xac, 0xbc, 0xe1, 0x0b, 0xa4, 0xbe,
  0xc2, 0x8e, 0x78, 0x3c, 0xe4, 0x48, 0xc7, 0x3d, 0x53, 0x63, 0xa8, 0xbd,
  0xf3, 0x03, 0x17, 0x3d, 0x07, 0xe4, 0xd5, 0xbc, 0x25, 0x0b, 0xbb, 0x3c,
  0x30, 0xa1, 0x89, 0xbd, 0x9c, 0x72, 0xd4, 0x3d, 0xda, 0x16, 0x44, 0xbe,
  0x96, 0xb2, 0xe3, 0x3d, 0x2c, 0xb9, 0x50, 0xbe, 0xc6, 0x75, 0x80, 0xbe,
  0xba, 0x4c, 0xeb, 0x39, 0x18, 0xd7, 0xc6, 0x3d, 0x61, 0x84, 0x00, 0xbe,
  0x0a, 0xc7, 0xd2, 0xbe, 0xb9, 0xb1, 0x19, 0x3d, 0x83, 0xd0, 0xf9, 0x3d,
  0xcd, 0x44, 0xb7, 0x3d, 0xa5, 0x2c, 0x82, 0xbc, 0x3e, 0xc0, 0x89, 0xbc,
  0x56, 0x40, 0xd4, 0x3d, 0x1b, 0xf5, 0xdc, 0xbd, 0xbc, 0x0d, 0x10, 0x3d,
  0x8a, 0x9c, 0xbd, 0x3e, 0x56, 0xca, 0x18, 0xbe, 0x90, 0x5f, 0x8b, 0x3d,
  0x41, 0x79, 0xe4, 0x3e, 0xb3, 0xa7, 0x03, 0xbe, 0x7b, 0xb6, 0x25, 0xbe,
  0x10, 0xb9, 0x20, 0xbf, 0x03, 0x7c, 0x86, 0xbd, 0x61, 0x68, 0x8b, 0xbd,
  0xf5, 0x20, 0xa4, 0xbe, 0x81, 0xd6, 0xb9, 0x3c, 0x18, 0x15, 0x22, 0xbe,
  0x53, 0x2a, 0x77, 0xbe, 0x83, 0x17, 0x1e, 0xbf, 0x3c, 0x85, 0x9a, 0xbd,
  0x94, 0xe2, 0x15, 0xbc, 0xd1, 0xd5, 0x31, 0xbe, 0x7c, 0x79, 0x27, 0xbf,
  0x2a, 0xbf, 0x66, 0xbd, 0x05, 0x38, 0x28, 0x3e, 0x0c, 0xbc, 0x01, 0xbe,
  0x4c, 0x89, 0x2b, 0xbe, 0xb2, 0x5e, 0x75, 0xbe, 0x69, 0x77, 0x94, 0xbe,
  0xd9, 0xac, 0x83, 0x3b, 0x8c, 0xaf, 0xb0, 0x3c, 0x70, 0x85, 0x89, 0xbd,
  0x64, 0xba, 0x02, 0xbe, 0x77, 0x32, 0x10, 0x3e, 0xd4, 0x31, 0x92, 0xbe,
  0x94, 0x44, 0x11, 0xbe, 0x93, 0x50, 0x57, 0xbd, 0x16, 0xfa, 0xd2, 0xbe,
  0x76, 0x60, 0x19, 0xbe, 0x21, 0x70, 0xe7, 0xbc, 0x46, 0xf5, 0xe0, 0x3d,
  0x19, 0xe6, 0x17, 0xbe, 0x10, 0x31, 0x3f, 0xbe, 0x79, 0x4e, 0xdc, 0xbc,
  0xaf, 0x06, 0x72, 0xbe, 0xbb, 0x79, 0xd0, 0x3d, 0xe4, 0x7c, 0xdc, 0xbb,
  0x47, 0xb7, 0x29, 0x3d, 0x1f, 0x77, 0x32, 0xbd, 0x87, 0x21, 0x25, 0xbe,
  0x00, 0x03, 0xd4, 0xbe, 0x3c, 0x7f, 0x32, 0xba, 0x91, 0xc9, 0x1f, 0xbd,
  0x62, 0x53, 0x19, 0xbe, 0x1c, 0x69, 0xb1, 0xbe, 0x3f, 0x1d, 0x8e, 0xbe,
  0xed, 0x25, 0xac, 0x3e, 0x0d, 0xdb, 0x97, 0xbd, 0x85, 0xcb, 0xe4, 0x3a,
  0x2b, 0x9e, 0x1c, 0x3e, 0x3d, 0x3f, 0xfd, 0xbd, 0xd9, 0xcd, 0x08, 0xbc,
  0xfd, 0xad, 0xb1, 0xbd, 0xce, 0xeb, 0x39, 0xbd, 0xc9, 0x00, 0xbe, 0x3d,
  0xdd, 0x40, 0x14, 0xbe, 0x51, 0xb7, 0xbb, 0xbe, 0xc3, 0x02, 0x85, 0xbe,
  0x17, 0x81, 0xd6, 0xbd, 0x9e, 0xb8, 0x8e, 0x3b, 0x38, 0x49, 0xd7, 0xbe,
  0x21, 0x6d, 0xb5, 0xbd, 0x93, 0x36, 0xbd, 0x3e, 0xe0, 0x58, 0xd9, 0xbc,
  0xcb, 0xa8, 0xd1, 0xbd, 0xee, 0x05, 0x31, 0xbd, 0xc3, 0xce, 0xf0, 0xbe,
  0xc4, 0x36, 0xd9, 0x3b, 0x56, 0x68, 0xc3, 0x3c, 0xdc, 0x4c, 0x81, 0xbe,
  0xd6, 0x23, 0x23, 0xbe, 0x8f, 0x77, 0x4b, 0x3e, 0xe4, 0x4b, 0xf4, 0xbd,
  0xe4, 0x45, 0xb9, 0x3d, 0x59, 0x13, 0x6d, 0xbd, 0x07, 0x8e, 0xc8, 0xbd,
  0x08, 0xfe, 0x86, 0xbe, 0x25, 0x65, 0x1f, 0x3d, 0xb9, 0x4c, 0x1d, 0x3e,
  0x90, 0xd1, 0xf3, 0x3e, 0x6b, 0x8f, 0x0f, 0xbd, 0x0d, 0x9f, 0xc7, 0xbe,
  0x4f, 0x41, 0x46, 0xbb, 0x8d, 0x44, 0x03, 0xbb, 0xca, 0x8f, 0xcf, 0xbd,
  0xab, 0xbe, 0x74, 0xbe, 0x49, 0x59, 0x07, 0x3f, 0x05, 0x4f, 0x3d, 0x3d,
  0xc3, 0x65, 0x3e, 0xbe, 0x3f, 0x16, 0x4a, 0xbd, 0x36, 0x61, 0x86, 0x3c,
  0xe2, 0x65, 0x14, 0xbe, 0x1c, 0x65, 0x49, 0xbe, 0xf2, 0x1e, 0xa5, 0x3d,
  0x5e, 0x9a, 0x47, 0x3e, 0xed, 0xd6, 0xd0, 0x3e, 0x4e, 0x68, 0x71, 0x3e,
  0x41, 0x0b, 0x54, 0x3d, 0x4a, 0x8f, 0x4a, 0x3b, 0x0d, 0x4b, 0x9e, 0x3d,
  0x81, 0xfe, 0x88, 0xbd, 0x9b, 0x0e, 0x2c, 0xbe, 0xdb, 0xcb, 0xd6, 0x3e,
  0x57, 0x9d, 0x33, 0x3d, 0x1f, 0x81, 0x1e, 0xbd, 0xda, 0x84, 0xa9, 0x3d,
  0xe3, 0x8d, 0x54, 0xbd, 0x42, 0xc3, 0xfe, 0x3c, 0xe3, 0xc2, 0x02, 0x3d,
  0x17, 0xec, 0x37, 0xbd, 0x35, 0xcb, 0x37, 0xbe, 0x52, 0x85, 0x79, 0x3e,
  0x09, 0x1e, 0xd1, 0x3d, 0x75, 0xe6, 0x8a, 0x3c, 0x4b, 0x66, 0x8d, 0xbd,
  0x7b, 0xe7, 0xd9, 0xbc, 0xf8, 0x66, 0xa8, 0xbc, 0x15, 0x3e, 0xdb, 0x3a,
  0x68, 0x95, 0x3b, 0x3e, 0x7b, 0xec, 0x8d, 0xbd, 0x30, 0x64, 0xf1, 0x3d,
  0xe9, 0x09, 0xc1, 0xbc, 0x8d, 0x93, 0x8f, 0x3d, 0x2f, 0x56, 0x14, 0x3e,
  0x17, 0xba, 0xa5, 0xbc, 0xfc, 0x81, 0x33, 0xbe, 0xe7, 0xae, 0xee, 0xbd,
  0xc0, 0x07, 0x8c, 0xbd, 0x68, 0xad, 0x8b, 0xbe, 0x77, 0x86, 0x5e, 0xbc,
  0xc5, 0xc7, 0x7c, 0xbe, 0xb5, 0xfa, 0xd3, 0x3d, 0x16, 0xbc, 0xbe, 0xbd,
  0x00, 0x93, 0x18, 0xbe, 0x48, 0xc1, 0x5d, 0xbe, 0xb8, 0x07, 0x41, 0xbe,
  0xed, 0x62, 0x01, 0xbd, 0xa8, 0x6f, 0x37, 0xbe, 0x0f, 0x73, 0x5c, 0x3e,
  0x02, 0xa2, 0x2c, 0x3e, 0xb6, 0xd4, 0x3b, 0xbd, 0xd0, 0x7b, 0x0c, 0x3b,
  0x4a, 0x60, 0x1f, 0xbe, 0x0f, 0x17, 0x12, 0xbe, 0x11, 0x37, 0x64, 0xbe,
  0x19, 0x3a, 0x3c, 0xbe, 0x86, 0x31, 0x4e, 0xbe, 0x86, 0x16, 0x05, 0x3e,
  0x76, 0xe3, 0xd8, 0x3d, 0x45, 0x40, 0x44, 0xbe, 0x4d, 0xa2, 0x89, 0xbe,
  0x02, 0x8f, 0x6b, 0xbe, 0x78, 0x82, 0xd7, 0xbc, 0xb4, 0xc1, 0x04, 0xbe,
  0x5a, 0x8d, 0x38, 0xbe, 0x63, 0x68, 0x10, 0x3e, 0x76, 0xc8, 0xf7, 0x3c,
  0x43, 0xe0, 0xae, 0xbd, 0x24, 0xe2, 0x19, 0xbe, 0xcb, 0xc3, 0x1d, 0xbd,
  0xeb, 0x35, 0x3d, 0xbe, 0x8d, 0x00, 0x30, 0xbd, 0xec, 0x8b, 0xba, 0xbd,
  0x47, 0x99, 0x7c, 0xbd, 0x8c, 0x55, 0xda, 0x3d, 0x6b, 0xb1, 0x50, 0xbe,
  0x1f, 0xee, 0x46, 0xbe, 0x5f, 0x8f, 0x09, 0x3e, 0xba, 0x4d, 0x0c, 0xbd,
  0x73, 0x88, 0x5d, 0xbe, 0x7f, 0x45, 0xae, 0xbb, 0x9a, 0xbf, 0xf5, 0x3d,
  0xe9, 0xbe, 0x7f, 0x3d, 0x3c, 0x51, 0x1e, 0x3e, 0x7f, 0xc4, 0x3e, 0xbe,
  0xc2, 0xe5, 0x3a, 0xbe, 0x9f, 0x5d, 0x23, 0x3e, 0x63, 0x41, 0x06, 0xbe,
  0xf6, 0xa6, 0x31, 0xbd, 0xff, 0x54, 0xef, 0x3d, 0x92, 0x21, 0xa1, 0xbc,
  0x6d, 0x6f, 0xa6, 0x3c, 0xa1, 0xfd, 0x72, 0x3e, 0x18, 0xe3, 0x75, 0xbc,
  0xb5, 0x65, 0x28, 0xbe, 0x83, 0x42, 0x74, 0x3d, 0xd9, 0x05, 0xc4, 0xbd,
  0x16, 0x69, 0xe7, 0xbd, 0x68, 0x86, 0xb0, 0xbd, 0xaa, 0x64, 0xce, 0x3d,
  0x83, 0x98, 0x9b, 0x3d, 0xd9, 0xae, 0x74, 0xbe, 0x59, 0x6d, 0x58, 0x3d,
  0xf6, 0x7a, 0x2d, 0xbe, 0x7e, 0x51, 0xa9, 0xbb, 0xbf, 0x4b, 0x95, 0x3d,
  0x7c, 0xd5, 0x8e, 0xbc, 0xf8, 0xe2, 0x2d, 0xbe, 0xad, 0xc8, 0xc5, 0xbd,
  0x91, 0xfa, 0x9b, 0xbc, 0x71, 0xf5, 0x7c, 0x3e, 0xd2, 0xea, 0xc0, 0x3b,
  0xb4, 0xb8, 0x86, 0xbe, 0x06, 0xda, 0xf3, 0x3b, 0xa9, 0x9c, 0x1d, 0xbc,
  0xe9, 0x3f, 0x95, 0xbd, 0x52, 0x66, 0xe0, 0xbd, 0x2e, 0x06, 0xe0, 0x3d,
  0x11, 0x22, 0x6c, 0xbe, 0x0f, 0x73, 0x6d, 0xbe, 0xe5, 0xeb, 0xa3, 0xbe,
  0xdb, 0x6e, 0x41, 0xbb, 0xbd, 0x8f, 0x4f, 0x3e, 0x87, 0xad, 0xfd, 0xbd,
  0xf7, 0x24, 0x4f, 0xbe, 0x81, 0xc9, 0x9b, 0xbc, 0xcb, 0x22, 0x9d, 0xbe,
  0x7b, 0xd2, 0x87, 0xbe, 0xd1, 0x1f, 0x74, 0xbe, 0x13, 0x37, 0x83, 0xbe,
  0xfe, 0x3c, 0xb9, 0x3d, 0xcd, 0x55, 0x8d, 0xbe, 0x17, 0xb4, 0x32, 0x3d,
  0xe5, 0x32, 0x36, 0xbd, 0x9e, 0x3c, 0x2f, 0x3d, 0xfa, 0x1f, 0x41, 0xbd,
  0x7f, 0x4f, 0x49, 0xbe, 0xbc, 0x25, 0x00, 0x3d, 0x5b, 0x3d, 0x0b, 0xbd,
  0x7f, 0x25, 0x22, 0xbe, 0x24, 0xe9, 0x33, 0x3d, 0xd2, 0xaf, 0x17, 0xbd,
  0xb7, 0x70, 0xea, 0xbe, 0xa9, 0xdc, 0xb3, 0x3c, 0x5f, 0xd4, 0x00, 0xbe,
  0x06, 0xbf, 0x1f, 0xbc, 0xe4, 0x42, 0x58, 0xbd, 0xbf, 0xb2, 0x4e, 0x3d,
  0xff, 0x01, 0x30, 0x3d, 0xea, 0x7a, 0x0b, 0x3d, 0xf0, 0x4d, 0xb0, 0x3d,
  0x0d, 0x51, 0xfe, 0x3c, 0xe3, 0x79, 0x2a, 0x3c, 0xe0, 0x42, 0x5d, 0xbe,
  0xb5, 0xe9, 0x0a, 0xbe, 0x6b, 0x7a, 0x2c, 0xbe, 0x64, 0x8e, 0x9b, 0xbe,
  0x24, 0x28, 0x33, 0xbe, 0x6b, 0x74, 0x78, 0xbe, 0x3c, 0x64, 0x03, 0x3e,
  0xa8, 0xf5, 0x6e, 0x3d, 0x7d, 0xed, 0xa7, 0x3e, 0xfe, 0xc6, 0x03, 0x3e,
  0x1f, 0x7d, 0xdf, 0x3d, 0x5d, 0x84, 0xfa, 0x3c, 0x65, 0xd9, 0x5c, 0x3e,
  0xdf, 0x72, 0xc1, 0x3e, 0x27, 0x4d, 0x0e, 0xbc, 0x6e, 0xe9, 0x96, 0xbc,
  0x5f, 0xc6, 0x3d, 0xbe, 0x5b, 0xb1, 0x3c, 0xbe, 0xd7, 0xeb, 0x78, 0xbe,
  0xed, 0x85, 0x26, 0xbe, 0x80, 0x15, 0xb9, 0xbd, 0x47, 0x9b, 0x85, 0xbe,
  0xd0, 0x5e, 0xe9, 0x3d, 0xdd, 0x49, 0xdf, 0x3d, 0x8a, 0xb4, 0x91, 0x3e,
  0xb9, 0x4f, 0x80, 0xbd, 0x4b, 0x2d, 0x05, 0xbc, 0xe0, 0xdd, 0xa1, 0xbc,
  0xc3, 0xe7, 0x25, 0x3e, 0xd9, 0x5d, 0xf3, 0x3e, 0xc3, 0x96, 0x30, 0x3e,
  0x3e, 0xad, 0xdc, 0xbc, 0xb0, 0xb3, 0x55, 0xbe, 0xf3, 0x05, 0xa9, 0xbe,
  0x5c, 0x8f, 0x2e, 0xbd, 0xac, 0x26, 0x4f, 0x3e, 0xc5, 0xd7, 0xcc, 0x3d,
  0x70, 0xed, 0x9a, 0xbd, 0x58, 0x8f, 0xf2, 0x3d, 0xce, 0x26, 0x3a, 0x3e,
  0x0d, 0x5b, 0xb9, 0x3e, 0x5a, 0x30, 0xe2, 0xbd, 0xf5, 0x49, 0x33, 0x3e,
  0xd9, 0x3b, 0x83, 0x3d, 0x10, 0x9d, 0x05, 0x3f, 0x91, 0xb3, 0x0b, 0x3e,
  0x52, 0xa8, 0x37, 0x3c, 0xdd, 0xc3, 0x58, 0x3d, 0x55, 0xec, 0xf4, 0xbc,
  0x0d, 0x3a, 0x17, 0xbe, 0x0b, 0x87, 0x96, 0xbc, 0x58, 0xdc, 0x77, 0xbe,
  0x99, 0x55, 0x76, 0xbd, 0x2e, 0xdb, 0x8d, 0xbe, 0x0c, 0xbc, 0xdf, 0x3d,
  0xd0, 0xc6, 0xdc, 0xbb, 0xab, 0xe9, 0xf7, 0x3c, 0x2f, 0x1e, 0x06, 0x3e,
  0x3b, 0x15, 0x14, 0x3e, 0xba, 0x62, 0xd9, 0xbd, 0x3c, 0x72, 0x95, 0xbe,
  0x19, 0x3e, 0x8c, 0x3e, 0x05, 0x21, 0x0b, 0x3d, 0xee, 0x78, 0x01, 0x3d,
  0x1b, 0xf1, 0x75, 0xbe, 0x3d, 0xe6, 0x4d, 0xbe, 0x15, 0x90, 0x3a, 0xbd,
  0x9c, 0xa6, 0x83, 0xbd, 0x5c, 0xfe, 0x0b, 0xbe, 0x6e, 0x59, 0xce, 0xbe,
  0x6a, 0x4e, 0x56, 0x3d, 0x87, 0x3c, 0xf7, 0xbc, 0xfb, 0x64, 0x0c, 0x3e,
  0x7a, 0x6d, 0x03, 0x3e, 0xa6, 0x5a, 0x39, 0x3d, 0x36, 0x56, 0x29, 0xbe,
  0x37, 0xf3, 0x2b, 0xbd, 0x73, 0xf8, 0xc0, 0x3d, 0x27, 0x9b, 0x2a, 0x3c,
  0xb3, 0xa9, 0x85, 0xbd, 0x03, 0xc6, 0x84, 0xbe, 0x41, 0xed, 0xb2, 0xbe,
  0x0f, 0x22, 0x80, 0xbd, 0x79, 0xe1, 0x67, 0xbe, 0x88, 0x48, 0xae, 0xbe,
  0x31, 0x5a, 0x30, 0xbf, 0x63, 0xa7, 0x20, 0xbd, 0xbb, 0xd7, 0x72, 0xbe,
  0x5d, 0xbe, 0xba, 0xbe, 0x3d, 0xa0, 0xa2, 0x3d, 0x07, 0x84, 0xf7, 0xbd,
  0xfd, 0xfe, 0xc2, 0xbe, 0xb9, 0x9a, 0x89, 0xbe, 0xc5, 0xc5, 0x7f, 0x3e,
  0x72, 0x0d, 0xaa, 0x3d, 0xf9, 0xa3, 0x6c, 0xbd, 0xf9, 0x44, 0x60, 0xbe,
  0x32, 0xbc, 0x8c, 0x39, 0xf7, 0x27, 0xe4, 0xbd, 0x0d, 0x5a, 0xc6, 0xbd,
  0x2b, 0xbe, 0xc8, 0xbd, 0x0e, 0x87, 0x93, 0x3d, 0xb3, 0xf0, 0x3a, 0x3c,
  0x7c, 0xa2, 0x1a, 0xbc, 0xff, 0x27, 0x28, 0xbe, 0xf1, 0xfa, 0xae, 0xbd,
  0xda, 0x6d, 0x0d, 0xbe, 0x0f, 0x8c, 0x1a, 0xbe, 0xaa, 0x5f, 0x46, 0xbd,
  0xd9, 0x20, 0x8d, 0xbe, 0xa6, 0x9c, 0xd9, 0xbe, 0x20, 0xb0, 0x93, 0xbe,
  0xc2, 0x2a, 0x74, 0x3d, 0x23, 0xe8, 0xe5, 0xbd, 0xa6, 0xa1, 0x96, 0xbe,
  0x43, 0xef, 0x8d, 0xbe, 0x82, 0x02, 0x23, 0xbe, 0x33, 0xce, 0x61, 0x3c,
  0x16, 0x76, 0x67, 0x3e, 0x6c, 0xbe, 0xda, 0x3d, 0xdd, 0xa6, 0xd3, 0xbe,
  0x61, 0xba, 0xa2, 0x3d, 0xf2, 0xff, 0x59, 0xbe, 0x3e, 0x9e, 0xdd, 0xbd,
  0xb9, 0x8c, 0xf3, 0x3d, 0xaa, 0x18, 0x80, 0x3c, 0xee, 0xa8, 0xaf, 0xbe,
  0x15, 0xee, 0x7f, 0xbe, 0x5d, 0xbd, 0x4e, 0x3d, 0xb6, 0x9e, 0xe5, 0x3d,
  0x43, 0x5d, 0x22, 0xbe, 0xcf, 0x89, 0xb5, 0x3e, 0x06, 0x76, 0x54, 0x3c,
  0x85, 0x01, 0x80, 0x3d, 0xae, 0x92, 0x46, 0x3d, 0x35, 0x44, 0x20, 0x3e,
  0x93, 0x8f, 0x0f, 0xbf, 0xaf, 0x26, 0xb4, 0xbd, 0xfe, 0x19, 0xbc, 0xbe,
  0xe9, 0x5d, 0x36, 0xbe, 0x64, 0x26, 0x04, 0x3d, 0x3e, 0xaf, 0x46, 0x3e,
  0xe6, 0xbc, 0x69, 0xbe, 0x97, 0xd9, 0xba, 0xbe, 0x9a, 0xea, 0x92, 0x3c,
  0x8d, 0x03, 0x44, 0x3d, 0x9d, 0x7e, 0x4e, 0xbc, 0x1e, 0xd8, 0xd8, 0x3e,
  0xc3, 0x9b, 0xa2, 0xbd, 0xf3, 0x1f, 0x50, 0x3d, 0x7d, 0x09, 0x8b, 0x3d,
  0xa9, 0x8e, 0xa8, 0x3c, 0x52, 0x47, 0x67, 0xbe, 0x9b, 0x6a, 0x06, 0x3c,
  0x78, 0x19, 0x19, 0xbe, 0x2e, 0x64, 0x2f, 0xbe, 0x41, 0xb4, 0x7b, 0x3e,
  0x10, 0x5b, 0x8c, 0x3e, 0x0a, 0xb5, 0x99, 0xbe, 0xfc, 0x66, 0x2c, 0xbe,
  0xa5, 0x3f, 0x81, 0x3d, 0x84, 0xa0, 0x00, 0x3e, 0x78, 0x7f, 0x32, 0x3b,
  0x2a, 0x87, 0x04, 0x3e, 0xa1, 0xc1, 0xb2, 0x3d, 0xf9, 0x4b, 0x56, 0x3d,
  0x6d, 0x12, 0x57, 0x3d, 0xc7, 0xd3, 0x42, 0x3e, 0x92, 0x72, 0x09, 0xbf,
  0x33, 0xd7, 0xfd, 0x3d, 0xbc, 0xf9, 0x44, 0xbe, 0x32, 0x64, 0xd9, 0x3c,
  0x8a, 0x25, 0xc2, 0xbd, 0x5f, 0x6e, 0x86, 0x3e, 0xa8, 0x10, 0x7f, 0xbe,
  0x15, 0x9f, 0x81, 0xbe, 0xf8, 0x59, 0x42, 0x3c, 0x3a, 0xba, 0x9c, 0x3d,
  0x6c, 0xd6, 0xa7, 0x3d, 0x32, 0xa2, 0x94, 0xbc, 0x91, 0xde, 0x4f, 0xbe,
  0x9a, 0x80, 0x42, 0x3d, 0x61, 0x04, 0x29, 0xbe, 0x09, 0xdc, 0x56, 0x3e,
  0xfe, 0x94, 0xfc, 0xbe, 0x12, 0x9d, 0xd2, 0x3c, 0xb1, 0xed, 0x55, 0xbe,
  0x48, 0xba, 0x84, 0xbd, 0xb2, 0xac, 0x10, 0x3e, 0xf9, 0x37, 0x56, 0x3d,
  0x0b, 0xcc, 0xb5, 0xbe, 0x9f, 0xda, 0x04, 0xbf, 0x2a, 0x01, 0xe1, 0xba,
  0xfb, 0xb4, 0x23, 0x3d, 0x2b, 0xf3, 0x88, 0x3d, 0x7c, 0x0a, 0x99, 0xbd,
  0x22, 0x31, 0xf3, 0xbd, 0x54, 0x7d, 0xd4, 0x3d, 0x1b, 0x67, 0x92, 0xbc,
  0xf7, 0xc3, 0x9d, 0x3d, 0x52, 0xa1, 0x85, 0x3e, 0xe1, 0x0b, 0x16, 0xbe,
  0x4b, 0x63, 0x21, 0x3d, 0x83, 0x02, 0x77, 0x3e, 0x65, 0x91, 0x25, 0xbd,
  0x61, 0xba, 0x2c, 0xbe, 0xa1, 0x0f, 0x0a, 0xbf, 0x6d, 0x02, 0x98, 0xbd,
  0xfe, 0x94, 0x19, 0xbe, 0x63, 0x51, 0xa6, 0xbe, 0x39, 0xdd, 0x96, 0x3d,
  0xda, 0x19, 0x41, 0xbd, 0x2a, 0xf6, 0x71, 0xbc, 0x33, 0xfc, 0xdc, 0xbe,
  0xf6, 0x81, 0x3b, 0xbe, 0x0b, 0x6b, 0x92, 0xbd, 0xf2, 0x04, 0xcc, 0x3d,
  0x28, 0xca, 0x66, 0xbf, 0xe3, 0xdc, 0xc2, 0xbe, 0xef, 0x92, 0xde, 0x3c,
  0xe2, 0x86, 0x87, 0xbd, 0x5c, 0x59, 0x7f, 0xbe, 0xd3, 0xcd, 0xd0, 0xbe,
  0x5b, 0xd4, 0xbd, 0xbe, 0xe0, 0x9f, 0x93, 0x3d, 0xdc, 0x03, 0x8c, 0x3a,
  0xab, 0x99, 0xcb, 0xbe, 0xc6, 0x44, 0x09, 0xbf, 0x9a, 0xb8, 0x1f, 0xbd,
  0x4d, 0x3f, 0x28, 0xbe, 0xb1, 0xb4, 0x86, 0xbd, 0x2e, 0x7b, 0xdf, 0xbb,
  0x19, 0xe0, 0x97, 0x3d, 0x6c, 0xc8, 0x64, 0xbe, 0x61, 0x1d, 0x93, 0xbe,
  0x15, 0x39, 0xf2, 0x3b, 0x6f, 0x15, 0x09, 0x3d, 0x9c, 0x07, 0xa2, 0xbc,
  0x05, 0x20, 0x3d, 0x3d, 0x80, 0xd3, 0x9c, 0xbe, 0x34, 0x68, 0xef, 0x3c,
  0x6e, 0x49, 0x0f, 0xbe, 0xd8, 0x38, 0x11, 0xbe, 0xed, 0x68, 0xbc, 0xbe,
  0xec, 0xc2, 0x0d, 0xbe, 0x1d, 0xef, 0x78, 0xbe, 0xc8, 0x25, 0x78, 0xbe,
  0x88, 0xf2, 0x51, 0xbd, 0x90, 0x60, 0x9f, 0xbd, 0xa6, 0x56, 0xd9, 0xbe,
  0x1b, 0xfb, 0x87, 0xbe, 0xe6, 0x43, 0xfc, 0x3d, 0xe9, 0x7a, 0xa0, 0xbd,
  0x7f, 0x19, 0xb9, 0xbd, 0x8f, 0xf6, 0x7c, 0x3c, 0x3a, 0x9e, 0xb6, 0xbe,
  0x48, 0xb7, 0xe3, 0x3d, 0xb8, 0x02, 0x79, 0xbd, 0x57, 0x8e, 0x53, 0xbe,
  0x10, 0x54, 0xbc, 0xbd, 0xf5, 0x05, 0xcb, 0xbe, 0x7f, 0x58, 0xb1, 0xbe,
  0x5c, 0xb2, 0xc1, 0xbe, 0x2a, 0x01, 0xa9, 0xbd, 0x4d, 0x6b, 0x00, 0x3c,
  0x40, 0x30, 0xde, 0xbe, 0xbe, 0x9f, 0xb5, 0xbd, 0xa7, 0x8d, 0x86, 0xbe,
  0xaf, 0xf3, 0x23, 0xbe, 0x0b, 0x80, 0x8c, 0xbe, 0x76, 0xbe, 0x22, 0xbd,
  0x2a, 0xde, 0x28, 0xbf, 0xda, 0xb1, 0x2c, 0x3c, 0x46, 0x6b, 0x25, 0xbc,
  0x7e, 0xff, 0xc1, 0xbd, 0x34, 0xea, 0xea, 0xbe, 0x9c, 0x39, 0x9e, 0x3d,
  0x5b, 0x17, 0xa2, 0xbe, 0x89, 0x9a, 0x9b, 0x3d, 0x25, 0x1b, 0x10, 0x3d,
  0x41, 0x63, 0xfc, 0x3d, 0xb0, 0x8b, 0xcd, 0xbe, 0x56, 0x5b, 0x97, 0x3d,
  0xd4, 0xcf, 0x7f, 0xbe, 0x91, 0x74, 0x14, 0x3f, 0x4c, 0x11, 0x45, 0x3e,
  0x66, 0x75, 0xdf, 0xbe, 0x6a, 0xbf, 0x0d, 0x3c, 0x1e, 0x9e, 0xbf, 0x3c,
  0xc2, 0x5c, 0x73, 0xbd, 0x51, 0x71, 0xcb, 0xbe, 0x37, 0x2a, 0xe2, 0x3e,
  0x82, 0xc6, 0x60, 0x3e, 0x8b, 0x1d, 0x32, 0xbe, 0xe8, 0x14, 0x45, 0xbd,
  0x01, 0x1f, 0xdb, 0xbb, 0x63, 0x3f, 0xac, 0xbd, 0x26, 0x32, 0x58, 0xbe,
  0xa3, 0xa0, 0x02, 0x3d, 0x8a, 0x3e, 0x82, 0xbc, 0xff, 0x8b, 0xa6, 0x3e,
  0x76, 0xef, 0x4d, 0x3e, 0x4b, 0x45, 0x98, 0xbd, 0xe2, 0xd0, 0x8c, 0xbd,
  0xb8, 0x24, 0x6d, 0x3d, 0x10, 0xeb, 0xce, 0xbd, 0xec, 0x9a, 0x1b, 0xbe,
  0x57, 0x02, 0xdf, 0x3e, 0x5a, 0x04, 0xa2, 0x3d, 0xf0, 0x8a, 0x5b, 0xbc,
  0x83, 0x92, 0x99, 0x3d, 0x01, 0x89, 0xbc, 0xbb, 0x48, 0x74, 0xb8, 0x3d,
  0xc6, 0x47, 0x2c, 0x3d, 0xac, 0xa7, 0xc0, 0x3b, 0xaf, 0xcd, 0x4b, 0xbe,
  0x4e, 0xf5, 0x3c, 0x3e, 0xe0, 0xf8, 0xc2, 0x3d, 0x90, 0xff, 0xf1, 0x3c,
  0x31, 0x88, 0xfa, 0x3c, 0x47, 0x9a, 0x32, 0xbd, 0x0b, 0x4e, 0x1b, 0xbc,
  0x39, 0xbe, 0x5a, 0xbd, 0x8f, 0xc3, 0x75, 0x3e, 0xa5, 0xe7, 0x61, 0x3e,
  0x29, 0x6c, 0x67, 0x3d, 0x47, 0xa5, 0x44, 0xbe, 0x3b, 0x45, 0xb4, 0xbe,
  0x13, 0xbb, 0x9b, 0xbd, 0x01, 0xa1, 0xe3, 0x3d, 0x61, 0xf2, 0xca, 0x39,
  0x99, 0x64, 0x8a, 0x3d, 0xfc, 0x4a, 0xd8, 0xbd, 0xb0, 0xdc, 0x11, 0xbe,
  0x99, 0x07, 0x63, 0x3c, 0x28, 0x9b, 0x05, 0x3d, 0xab, 0x37, 0x45, 0xbe,
  0x30, 0xd2, 0xed, 0xbc, 0x38, 0xfb, 0xb5, 0xbd, 0xc5, 0x78, 0x63, 0xbd,
  0xe1, 0xa8, 0xd8, 0x3e, 0x22, 0xe1, 0x90, 0x3d, 0x6a, 0x75, 0x81, 0xbe,
  0xcf, 0xcf, 0x75, 0xbe, 0x70, 0x5f, 0x83, 0xbe, 0x36, 0xa3, 0x24, 0x3e,
  0x71, 0x69, 0x34, 0xbe, 0x20, 0xc9, 0xdb, 0xbd, 0x3e, 0xc7, 0xe4, 0x3c,
  0x14, 0xc1, 0xbf, 0xbd, 0x42, 0x44, 0x2c, 0x3e, 0x51, 0x8b, 0x23, 0xbd,
  0xea, 0x6e, 0x81, 0xbe, 0x75, 0x84, 0xd0, 0xbe, 0x45, 0xc7, 0x8a, 0xbe,
  0x79, 0x2f, 0x16, 0x3f, 0x42, 0xd7, 0xf0, 0x3e, 0xd9, 0x16, 0x4e, 0x3d,
  0x71, 0xd0, 0xb8, 0xbe, 0x9a, 0x33, 0x81, 0xbe, 0x50, 0x5e, 0x01, 0xbe,
  0xaf, 0xf8, 0xbc, 0xbd, 0xb2, 0x81, 0x68, 0x3c, 0xc5, 0x3f, 0x99, 0xbd,
  0x7a, 0xe0, 0xf7, 0x3d, 0x61, 0xef, 0x87, 0xbe, 0xe8, 0x97, 0x26, 0x3e,
  0xeb, 0x1f, 0x75, 0xbd, 0xae, 0xaa, 0x6b, 0xbe, 0x97, 0xa8, 0x87, 0xbe,
  0xf3, 0xbf, 0x28, 0xbe, 0x03, 0xfb, 0x85, 0x3e, 0x78, 0xe2, 0xc2, 0x3e,
  0xd6, 0xfc, 0x2d, 0xbb, 0xa8, 0x58, 0xbd, 0xbe, 0xad, 0xa1, 0x04, 0x3d,
  0xe8, 0x08, 0xff, 0x3a, 0xaf, 0xc4, 0x08, 0xbe, 0xa8, 0x65, 0x34, 0xbd,
  0x92, 0x0e, 0x1e, 0x3d, 0xf2, 0x20, 0x04, 0xbd, 0x5a, 0x25, 0x1c, 0xbe,
  0x25, 0x57, 0x29, 0x3e, 0xd1, 0x52, 0xa1, 0xbc, 0x19, 0x63, 0x83, 0xbe,
  0x78, 0xf1, 0x53, 0xbe, 0x29, 0xad, 0x91, 0xbd, 0x58, 0xc0, 0x01, 0x3e,
  0x2b, 0xd9, 0xa3, 0x3e, 0xea, 0x60, 0x36, 0x3d, 0x3f, 0x3e, 0xe3, 0xbe,
  0x4a, 0x15, 0xc3, 0xbd, 0x5b, 0xa3, 0x60, 0xbe, 0x85, 0x74, 0xac, 0xbd,
  0xa8, 0x94, 0x3d, 0xbe, 0xcd, 0x9b, 0x98, 0xbd, 0x23, 0x4e, 0xd6, 0xbc,
  0xc4, 0x2f, 0xb1, 0xbc, 0x52, 0x34, 0x1d, 0x3e, 0x4b, 0xe7, 0xce, 0xbc,
  0xf9, 0x54, 0xb8, 0xbe, 0xe0, 0xc5, 0x6e, 0xbe, 0x24, 0x79, 0xaf, 0xbe,
  0x8a, 0x9e, 0x6f, 0x3e, 0xbc, 0xdc, 0xac, 0x3e, 0xb1, 0xd9, 0x1e, 0xbc,
  0xc5, 0xe7, 0x95, 0xbe, 0xee, 0x85, 0x61, 0xbe, 0xae, 0x15, 0xb3, 0xbd,
  0x8f, 0xd8, 0x98, 0x3d, 0xde, 0x6e, 0x89, 0xbd, 0x79, 0xfc, 0x14, 0x3e,
  0x09, 0xf1, 0x10, 0x3d, 0x3f, 0x40, 0x75, 0xbe, 0x25, 0x7d, 0x28, 0x3e,
  0x5e, 0xe9, 0xb7, 0x3c, 0x03, 0xad, 0xfb, 0xbe, 0xe3, 0x95, 0x93, 0x3d,
  0x7a, 0x7a, 0x9f, 0xbd, 0x4e, 0x72, 0x8b, 0x3d, 0x82, 0x33, 0x9f, 0x3d,
  0xea, 0xe0, 0x38, 0xbc, 0xe2, 0x4b, 0x8a, 0xbd, 0x48, 0xaa, 0x5f, 0xbc,
  0x31, 0x1e, 0xf8, 0x3d, 0x08, 0x9e, 0x69, 0xbc, 0xe0, 0xf4, 0x24, 0xbe,
  0xbe, 0xb7, 0x86, 0xbd, 0xf0, 0x78, 0x92, 0xbd, 0x86, 0x6b, 0xbd, 0xbc,
  0x88, 0xe8, 0xd9, 0xbb, 0xb2, 0x63, 0x02, 0x3d, 0xb3, 0xa7, 0xeb, 0xbd,
  0xc4, 0xfd, 0x31, 0xbe, 0x75, 0x3d, 0x96, 0xbc, 0x18, 0xde, 0xbc, 0x3d,
  0x37, 0x3a, 0xc3, 0xbe, 0xf4, 0x33, 0x74, 0xbd, 0x9c, 0x1b, 0xb1, 0x3a,
  0xea, 0xb9, 0xbb, 0x3d, 0x13, 0x1e, 0x11, 0xbe, 0x43, 0x67, 0x01, 0x3e,
  0x73, 0x32, 0xdc, 0xbe, 0x2e, 0xb0, 0x5b, 0xbe, 0xe3, 0xb4, 0x04, 0xbe,
  0xb8, 0x7f, 0x6e, 0xbe, 0xce, 0x7b, 0x8f, 0xbe, 0x9c, 0x5d, 0xa6, 0xbe,
  0x39, 0xd6, 0x13, 0x3e, 0x40, 0xc6, 0x9d, 0x3e, 0x1b, 0xde, 0x68, 0xbe,
  0x49, 0xab, 0x99, 0xbe, 0x00, 0x30, 0x32, 0x3d, 0x14, 0x5e, 0x14, 0xbe,
  0x45, 0x47, 0x6a, 0x3e, 0x38, 0xf1, 0x11, 0x3d, 0x3f, 0x20, 0x8a, 0xbe,
  0x99, 0x23, 0x95, 0x3d, 0x4e, 0xfb, 0x09, 0xbe, 0x0d, 0x32, 0x27, 0xbe,
  0xd6, 0x0d, 0xb9, 0x3e, 0x75, 0x76, 0x33, 0x3e, 0x75, 0x67, 0x92, 0xbe,
  0xab, 0xd0, 0x56, 0xbe, 0x04, 0x02, 0x06, 0x3e, 0xdc, 0x43, 0x12, 0x3e,
  0x3c, 0x54, 0xaa, 0xbe, 0xa5, 0xbb, 0xca, 0x3c, 0x3f, 0xc2, 0x1f, 0xbd,
  0x47, 0x79, 0xd0, 0xbd, 0xf3, 0x5f, 0x22, 0xbd, 0x55, 0x80, 0x7c, 0x3d,
  0x66, 0x4a, 0x45, 0xbe, 0xcd, 0xd2, 0xa6, 0x3e, 0xc0, 0xe2, 0x37, 0xbd,
  0xf6, 0x3c, 0x45, 0xbe, 0x22, 0xd2, 0x86, 0x3e, 0x28, 0x8b, 0xb5, 0xbc,
  0x7f, 0x7e, 0xcc, 0xbc, 0x9b, 0x99, 0xa1, 0xbd, 0xd5, 0xc9, 0xbe, 0xbc,
  0x82, 0x55, 0x99, 0xbd, 0x60, 0x9a, 0x84, 0xbe, 0xcf, 0x5a, 0xb4, 0xbd,
  0x59, 0x9a, 0xb9, 0xbc, 0x50, 0xef, 0x08, 0xbd, 0xd3, 0xf1, 0x07, 0x3d,
  0xfa, 0x41, 0xd0, 0x3d, 0xac, 0x44, 0xe7, 0x3c, 0xb8, 0x8e, 0x60, 0x3e,
  0x91, 0xf3, 0xd9, 0x3d, 0xfa, 0x86, 0x23, 0xbe, 0x25, 0xd3, 0x20, 0xbe,
  0x4e, 0xc9, 0x00, 0x3e, 0x47, 0x15, 0x86, 0xbe, 0xc9, 0xe4, 0x4b, 0xbe,
  0x6d, 0xf4, 0xff, 0x3c, 0x24, 0xde, 0x85, 0x3d, 0xdf, 0x4b, 0x13, 0xbe,
  0x19, 0x9f, 0x88, 0x3d, 0x5d, 0xfa, 0x03, 0xbd, 0x45, 0xf2, 0xa1, 0xbe,
  0x55, 0xb0, 0x81, 0x3e, 0x93, 0x6f, 0x84, 0x3d, 0x49, 0x73, 0x39, 0xbe,
  0x26, 0x14, 0x10, 0x3e, 0x9b, 0x2d, 0xad, 0xbd, 0x98, 0x8b, 0x73, 0xbd,
  0x6f, 0x63, 0xd6, 0x3d, 0xd9, 0x5b, 0x0d, 0x3e, 0xb3, 0x60, 0x5c, 0xbe,
  0x13, 0x11, 0x5f, 0xbe, 0x46, 0x28, 0xd3, 0xb9, 0xd7, 0xec, 0x80, 0x3e,
  0xb1, 0x98, 0x00, 0xbe, 0x1e, 0x41, 0x80, 0x3e, 0x20, 0x4b, 0x8f, 0x3c,
  0xa6, 0xae, 0x12, 0xbd, 0xfe, 0xfe, 0x1b, 0xbe, 0x19, 0xfc, 0x97, 0xbd,
  0x01, 0x10, 0x3a, 0xbd, 0x8d, 0x85, 0x2a, 0x3e, 0xa0, 0xfe, 0xa3, 0xbe,
  0xfd, 0x7a, 0xbc, 0xbd, 0xc3, 0x6a, 0x52, 0x3e, 0x9e, 0x35, 0x14, 0x3e,
  0xb1, 0x7f, 0xb6, 0xbd, 0x99, 0x5f, 0x8f, 0xbe, 0xb5, 0x11, 0x0b, 0xbd,
  0x99, 0xd3, 0x36, 0x3c, 0xf3, 0xea, 0x04, 0xbd, 0xd2, 0x7b, 0xa2, 0x3c,
  0xfa, 0x1d, 0x09, 0x3e, 0x73, 0x5d, 0xa9, 0x3d, 0xb4, 0xe1, 0x56, 0xbe,
  0xc1, 0x43, 0xfb, 0x3d, 0x94, 0xeb, 0x2a, 0x3e, 0xcf, 0x14, 0x4c, 0xbd,
  0x36, 0x27, 0x33, 0xbe, 0xa6, 0x59, 0x83, 0x3e, 0x2c, 0x53, 0x9e, 0xbe,
  0x32, 0x23, 0x1c, 0xbd, 0x39, 0x4b, 0xb0, 0xbe, 0x20, 0xf9, 0x95, 0xbd,
  0xe7, 0x9c, 0xb8, 0x3d, 0x37, 0xbb, 0x65, 0x3e, 0xec, 0x56, 0x13, 0xbd,
  0xf1, 0x56, 0xc3, 0xbe, 0x1f, 0x3a, 0xd8, 0xbe, 0x78, 0x1c, 0xb2, 0x3d,
  0x3a, 0xbb, 0x7b, 0xbd, 0xa8, 0x17, 0xe9, 0xbd, 0x25, 0xd0, 0x17, 0x3e,
  0x6e, 0x78, 0x61, 0x3d, 0x14, 0x85, 0x02, 0xbf, 0x13, 0xef, 0x77, 0xbe,
  0x95, 0xa5, 0x18, 0x3e, 0xd0, 0x06, 0x86, 0xbe, 0xc8, 0x5b, 0x99, 0xbe,
  0xa4, 0x70, 0xf3, 0xbe, 0x14, 0x60, 0x5b, 0xbd, 0xc8, 0x14, 0xa8, 0xbd,
  0x1d, 0x50, 0xa3, 0xbe, 0xa2, 0x25, 0xbf, 0xbe, 0x8d, 0xdb, 0x46, 0x3d,
  0xd6, 0x94, 0xbd, 0xbc, 0x3d, 0x5d, 0x0e, 0x3d, 0x9b, 0x67, 0xec, 0x3c,
  0x20, 0x6c, 0x83, 0x3e, 0x18, 0xd3, 0x28, 0x3e, 0x60, 0x8c, 0xa3, 0xbe,
  0xbd, 0xb3, 0x3d, 0xbd, 0x65, 0x53, 0xba, 0x3c, 0xbd, 0xa5, 0x0c, 0x3d,
  0x5e, 0x27, 0xa3, 0xbe, 0x2f, 0xf6, 0x0a, 0xbf, 0xe4, 0xd6, 0xb6, 0x3c,
  0x1b, 0xd7, 0xe6, 0x3d, 0x7a, 0x1c, 0x41, 0x3a, 0x6f, 0xe0, 0xc9, 0x3d,
  0xfb, 0xda, 0xb6, 0xbc, 0x6b, 0xdc, 0x26, 0xbc, 0xb8, 0xee, 0x26, 0x3d,
  0xf2, 0xc9, 0x3d, 0x3d, 0xfc, 0x27, 0x52, 0xbe, 0x31, 0x02, 0x80, 0x3e,
  0x43, 0x9c, 0xb1, 0xbe, 0x98, 0x24, 0x2c, 0xbe, 0xe3, 0x7a, 0x1c, 0x3e,
  0x0e, 0x64, 0x80, 0x3e, 0xf4, 0x00, 0xeb, 0xbd, 0x5e, 0x3f, 0x9c, 0xbe,
  0x34, 0x98, 0xe3, 0x3a, 0x98, 0xa5, 0x8f, 0x3c, 0xd0, 0x60, 0xd8, 0x3d,
  0x2a, 0x7f, 0xce, 0x3d, 0x26, 0xa1, 0x7d, 0x3d, 0xbe, 0x41, 0x0e, 0x3b,
  0xda, 0x23, 0x8c, 0xbd, 0x04, 0x38, 0x15, 0x3c, 0x0d, 0x4f, 0xc5, 0xbc,
  0x37, 0xf2, 0x2b, 0x3e, 0xf7, 0xf5, 0x3d, 0xbe, 0x62, 0x46, 0x50, 0xbe,
  0xc0, 0x1e, 0x56, 0x3e, 0xc7, 0x10, 0x21, 0x3e, 0x9c, 0x45, 0x56, 0xbe,
  0x7a, 0x49, 0x98, 0xbe, 0x15, 0x89, 0x0b, 0x3e, 0xc0, 0x79, 0x95, 0x3d,
  0x2a, 0xae, 0xe6, 0x3d, 0xa4, 0xaf, 0x27, 0xbc, 0xc7, 0x5e, 0x01, 0xbe,
  0x9e, 0x9a, 0x0b, 0x3d, 0xae, 0x24, 0xd7, 0x3d, 0xc1, 0xb3, 0x20, 0x3d,
  0x7f, 0x2f, 0x33, 0xbe, 0x74, 0xc5, 0x91, 0x3e, 0xf2, 0x43, 0x90, 0xbe,
  0xb7, 0xc9, 0xee, 0xbd, 0x1a, 0x28, 0xd6, 0xbd, 0x0f, 0xf3, 0x86, 0x3d,
  0xc4, 0x7d, 0x94, 0xbe, 0x62, 0x4e, 0xe0, 0xbe, 0x31, 0x6a, 0xf3, 0xba,
  0xee, 0x4a, 0x24, 0x3d, 0xa7, 0x1e, 0xd8, 0x3d, 0xc8, 0x9c, 0x20, 0x3e,
  0xf3, 0xef, 0x5e, 0xbe, 0x10, 0xde, 0xd9, 0x3c, 0x0b, 0xa4, 0xb4, 0xbd,
  0x5d, 0x95, 0xa0, 0x3d, 0x75, 0x06, 0x3a, 0xbd, 0x0d, 0xc5, 0x6b, 0x3e,
  0x14, 0x9f, 0x17, 0xbe, 0x9b, 0x29, 0xce, 0xbc, 0xd3, 0xbd, 0x28, 0xbe,
  0xf9, 0xc5, 0x06, 0x3e, 0x17, 0x60, 0x83, 0xbe, 0x28, 0x84, 0x85, 0xbf,
  0xab, 0xa3, 0xbf, 0xbd, 0x7e, 0xca, 0x44, 0x3d, 0x0f, 0x67, 0xcb, 0x3d,
  0x65, 0xc8, 0x05, 0x3e, 0xc9, 0x77, 0x44, 0x3d, 0x2e, 0xbd, 0xb9, 0x3c,
  0xe4, 0xfc, 0x37, 0xbd, 0x43, 0x6d, 0xd8, 0x3c, 0x75, 0x77, 0x79, 0x3e,
  0xc4, 0x9d, 0x8f, 0x3c, 0x24, 0xd9, 0x1a, 0x3c, 0x06, 0x7a, 0x95, 0x3e,
  0xb0, 0xf4, 0xb9, 0xbd, 0xda, 0x9e, 0x73, 0xbe, 0x24, 0x29, 0xaa, 0xbe,
  0x23, 0xb4, 0x86, 0xbc, 0xc4, 0x5b, 0xd1, 0xbd, 0x3f, 0x07, 0x0c, 0xbe,
  0x3d, 0x51, 0x4f, 0x3d, 0xb1, 0xda, 0xdd, 0xbd, 0x55, 0x55, 0x55, 0xbe,
  0x64, 0x52, 0xac, 0xbd, 0x1e, 0x9c, 0x42, 0xbe, 0x4e, 0x7c, 0x5b, 0xbe,
  0x6d, 0xf5, 0x9b, 0xbd, 0x99, 0xf4, 0xaa, 0xbc, 0xab, 0x71, 0x03, 0xbd,
  0x6d, 0xe6, 0x93, 0x3c, 0xb8, 0xdc, 0x06, 0x3d, 0xe5, 0x56, 0xda, 0xbd,
  0x39, 0x5c, 0x6e, 0xbd, 0x45, 0x97, 0x8b, 0xbe, 0xf1, 0x7f, 0xad, 0xbe,
  0xa0, 0xa7, 0x2b, 0xbe, 0x84, 0x46, 0x84, 0xbe, 0x3b, 0x42, 0x54, 0x3d,
  0x1d, 0xfc, 0xc8, 0x3d, 0x45, 0x08, 0xf7, 0xbd, 0x4d, 0x27, 0x35, 0xbd,
  0x25, 0xa8, 0x57, 0xbe, 0x05, 0x7d, 0x4f, 0x3d, 0x4d, 0x25, 0xfb, 0x3d,
  0x54, 0xcd, 0x52, 0xbe, 0x46, 0x6e, 0xdb, 0x3d, 0x16, 0x56, 0x9f, 0xbd,
  0xf1, 0x61, 0x01, 0x3e, 0xef, 0x06, 0x01, 0xbe, 0x44, 0xc3, 0xd0, 0xbd,
  0x7b, 0x6a, 0x82, 0xbd, 0x68, 0x2a, 0x2f, 0x3e, 0xa0, 0xb3, 0x83, 0xbd,
  0xfc, 0x3a, 0x8d, 0x3e, 0x3d, 0xc7, 0x9a, 0x3e, 0xa4, 0xc8, 0x2d, 0x3d,
  0x3d, 0x06, 0x53, 0xbe, 0xc8, 0x00, 0x41, 0xbc, 0x25, 0x56, 0xbc, 0x3d,
  0x59, 0x0c, 0xc3, 0x3c, 0xd8, 0xec, 0x2a, 0x3e, 0x72, 0xaa, 0xb3, 0xbd,
  0xa7, 0x64, 0xa3, 0x3d, 0x3f, 0x5b, 0xf0, 0xbd, 0xe7, 0x6b, 0x7f, 0x3e,
  0x53, 0x67, 0xda, 0x3d, 0x0b, 0x2b, 0x16, 0xbd, 0x81, 0xf4, 0xa8, 0xbd,
  0xdd, 0x67, 0xf5, 0xbc, 0x28, 0xf1, 0x13, 0x3e, 0x62, 0x0f, 0x84, 0x3b,
  0x55, 0xc4, 0x28, 0x3e, 0x32, 0x0c, 0xdc, 0x3c, 0x66, 0x48, 0xac, 0xbd,
  0xfe, 0xfe, 0x24, 0xbd, 0x03, 0xc7, 0xd1, 0x3e, 0x62, 0x48, 0x5e, 0xbe,
  0x8f, 0x9d, 0x52, 0xbe, 0x7d, 0xf4, 0x00, 0xbe, 0xa5, 0x99, 0x8b, 0xbd,
  0x13, 0x13, 0x80, 0x3d, 0xe6, 0xe7, 0xfb, 0xbc, 0x59, 0x9d, 0xd3, 0xbd,
  0x3d, 0xa0, 0x11, 0xbe, 0x5b, 0xcf, 0x72, 0x3e, 0xde, 0x6f, 0x87, 0x3d,
  0xff, 0x68, 0x2a, 0x3e, 0x53, 0x39, 0x0f, 0x3d, 0xbb, 0xea, 0x84, 0xbe,
  0x95, 0x80, 0x08, 0xbe, 0x99, 0xfa, 0x67, 0xbe, 0xd4, 0x71, 0xe8, 0x3c,
  0x86, 0xa5, 0x41, 0xbe, 0x64, 0x75, 0x61, 0xbd, 0x0c, 0xf8, 0xc2, 0x3d,
  0x6d, 0x5a, 0xba, 0xbc, 0x0a, 0x2d, 0xef, 0x3c, 0xa7, 0x65, 0x31, 0xbc,
  0xf1, 0xea, 0x66, 0xbd, 0x65, 0x2b, 0xc0, 0xbd, 0x28, 0xf8, 0x1e, 0xbe,
  0x55, 0xb5, 0x80, 0x3e, 0x42, 0x40, 0x88, 0x3e, 0x94, 0xf4, 0xa8, 0xbc,
  0x9e, 0x13, 0x15, 0xbe, 0x4c, 0x2a, 0x4b, 0xbe, 0x0d, 0xb7, 0xcf, 0xbc,
  0xcf, 0x18, 0x34, 0xbd, 0x26, 0x97, 0x85, 0xbd, 0x8c, 0x21, 0xa6, 0xbd,
  0x1f, 0x10, 0x0e, 0xbc, 0xb0, 0x97, 0xcf, 0xbd, 0xd6, 0x6c, 0x37, 0x3c,
  0x4b, 0xcb, 0x69, 0xbd, 0xf6, 0xe9, 0xa9, 0xbe, 0xbe, 0x1a, 0x33, 0xbd,
  0x6c, 0x51, 0x88, 0xbd, 0x28, 0xcf, 0xac, 0xbd, 0xec, 0x5d, 0xf4, 0x3b,
  0x35, 0x23, 0xb2, 0xbe, 0xfc, 0x73, 0x70, 0xbe, 0xf5, 0x2f, 0xd0, 0xbe,
  0x9d, 0x16, 0xdf, 0x3d, 0x7e, 0x2b, 0x3f, 0xbe, 0xee, 0x78, 0x99, 0xbd,
  0xff, 0xc1, 0xc2, 0xbe, 0xda, 0xf9, 0xd5, 0xbd, 0x90, 0xbe, 0xd3, 0xbd,
  0xe0, 0xcc, 0x95, 0x3d, 0xbd, 0x3f, 0x65, 0xbd, 0xcb, 0x11, 0x8e, 0xbd,
  0x36, 0xed, 0x34, 0xbd, 0x9d, 0x44, 0xd5, 0xbd, 0xf7, 0xce, 0x47, 0x3d,
  0xf9, 0x66, 0xac, 0xbe, 0x3b, 0xf9, 0xdb, 0x3c, 0x51, 0x99, 0xe2, 0xba,
  0x58, 0xce, 0xb5, 0xbe, 0xda, 0xf6, 0x68, 0x3e, 0x96, 0x2d, 0xa8, 0xbe,
  0xa5, 0x34, 0x04, 0x3c, 0x38, 0x39, 0x87, 0x40, 0x6d, 0x5f, 0xbe, 0xbe,
  0x77, 0x85, 0xe0, 0xbe, 0x7b, 0xe4, 0xe0, 0x3d, 0x96, 0xaa, 0xb7, 0x3c,
  0x8d, 0xcd, 0x29, 0xbe, 0xdf, 0x26, 0x98, 0x3d, 0xef, 0xa1, 0x12, 0x3e,
  0x7f, 0x35, 0x9b, 0xbe, 0x5d, 0x47, 0x87, 0xbe, 0x0b, 0x51, 0xa9, 0xbd,
  0x92, 0x89, 0x14, 0xbe, 0x02, 0xb5, 0xc1, 0xbe, 0xd2, 0x01, 0xb3, 0x3f,
  0x41, 0xb6, 0xe3, 0xbe, 0x56, 0x01, 0xe6, 0x3d, 0xf8, 0xac, 0xa9, 0x40,
  0xeb, 0xae, 0x10, 0x3d, 0xf1, 0x4e, 0x13, 0xbe, 0xa5, 0x4f, 0x06, 0x3d,
  0xcc, 0xef, 0x9f, 0x3d, 0xf3, 0xe0, 0x9b, 0x3e, 0xc7, 0xd9, 0x5a, 0xbd,
  0x00, 0xd1, 0xbb, 0x3d, 0x52, 0x2e, 0x3a, 0x3e, 0xf7, 0xa2, 0x01, 0xbf,
  0x2b, 0x47, 0x7c, 0xbd, 0xcf, 0x50, 0x2b, 0xbb, 0x4b, 0x21, 0xae, 0xbc,
  0x85, 0xab, 0x06, 0x40, 0xb3, 0xf1, 0x2b, 0xbf, 0x11, 0x29, 0x48, 0x3e,
  0xf9, 0x47, 0x5d, 0x40, 0x6f, 0x0c, 0x89, 0x3d, 0xec, 0x8e, 0x8c, 0xbe,
  0x5e, 0xfc, 0xa3, 0xbd, 0xd2, 0x66, 0x8a, 0x3e, 0x3b, 0xf4, 0xfd, 0x3e,
  0x30, 0x9c, 0x48, 0xbc, 0x8e, 0x3d, 0x0d, 0x3e, 0xb9, 0x5b, 0x06, 0x3e,
  0x92, 0x1c, 0x99, 0xbe, 0x1b, 0x9c, 0xf4, 0x3a, 0x49, 0x43, 0x86, 0xba,
  0xad, 0x8a, 0xf0, 0xbd, 0x7a, 0x28, 0x62, 0x3f, 0xe9, 0x8b, 0x00, 0xbf,
  0xa4, 0x2b, 0xcd, 0xbd, 0x9d, 0x1c, 0x9c, 0x40, 0x4e, 0x72, 0xde, 0x3c,
  0x2b, 0xb8, 0x0a, 0xbf, 0x50, 0xae, 0x21, 0x3d, 0x0d, 0x9a, 0x76, 0x3d,
  0xac, 0xe1, 0xc4, 0x3e, 0x80, 0x21, 0xbf, 0xbd, 0xf0, 0x4f, 0x01, 0x3e,
  0x4a, 0xf8, 0xa5, 0x3d, 0x76, 0x0c, 0xa3, 0xbb, 0x3e, 0x8e, 0x01, 0xbd,
  0xe3, 0x6e, 0xc4, 0xbc, 0x5f, 0x47, 0x8c, 0xbe, 0x92, 0x3a, 0x67, 0x3f,
  0x12, 0x59, 0xce, 0xbe, 0xb3, 0x12, 0xab, 0x3d, 0xf4, 0x7a, 0x88, 0x40,
  0x7f, 0xe0, 0x01, 0xbf, 0x91, 0x76, 0x25, 0xbf, 0x55, 0xaa, 0x0a, 0x3e,
  0x60, 0x00, 0x1e, 0x3d, 0xa2, 0x69, 0x76, 0x3e, 0x24, 0x69, 0x51, 0xbb,
  0x34, 0x67, 0x64, 0x3e, 0x9e, 0x61, 0xca, 0xbe, 0xe1, 0x49, 0x97, 0xbe,
  0xb6, 0x1d, 0x18, 0x3d, 0x4e, 0xad, 0x56, 0x3d, 0x14, 0xd8, 0xb1, 0xbe,
  0xd2, 0xe5, 0x3d, 0x3f, 0x20, 0x13, 0xd2, 0xbe, 0x86, 0xd7, 0x71, 0x3d,
  0x87, 0x8b, 0x93, 0x40, 0xd1, 0x9a, 0x01, 0xbf, 0x0d, 0xee, 0xca, 0xbe,
  0xde, 0xac, 0x7e, 0x3d, 0xab, 0xb4, 0x01, 0x3d, 0xf7, 0xda, 0xf6, 0x3d,
  0x03, 0x24, 0x8c, 0xbc, 0xbd, 0xfd, 0x61, 0x3e, 0x94, 0xf2, 0xf7, 0xbe,
  0xb3, 0x3b, 0x3b, 0xbe, 0xbc, 0x85, 0x40, 0x3b, 0x0f, 0xdc, 0x6d, 0xbc,
  0x34, 0x57, 0x8e, 0xbd, 0x15, 0x89, 0xfb, 0x3b, 0x8a, 0xf4, 0x0a, 0xbe,
  0xd4, 0xcc, 0xaa, 0x3c, 0x69, 0xde, 0xa1, 0xbd, 0x26, 0x6b, 0xc6, 0xbe,
  0x2c, 0xab, 0x24, 0xbe, 0xb7, 0xb2, 0x86, 0x3d, 0xe9, 0x9c, 0x04, 0x3d,
  0x50, 0x0e, 0x49, 0x3e, 0xba, 0xa9, 0xf1, 0x3d, 0x5d, 0x50, 0x07, 0x3d,
  0x11, 0x5f, 0x53, 0xbe, 0x9a, 0x5c, 0x96, 0xbd, 0x56, 0xc0, 0xc4, 0xbd,
  0x2f, 0xa0, 0xfb, 0x3d, 0xe7, 0x78, 0x5d, 0xbe, 0x2e, 0x56, 0x23, 0x3f,
  0xdd, 0x9a, 0xd5, 0xbd, 0x65, 0xd4, 0xd8, 0xbd, 0x78, 0x52, 0xd6, 0x3f,
  0x13, 0x83, 0xbc, 0x3d, 0xab, 0xe4, 0x26, 0xbe, 0x53, 0xfb, 0xd8, 0xbd,
  0x40, 0x5c, 0xca, 0xbd, 0x73, 0x78, 0xd5, 0xbd, 0x5a, 0x01, 0xf4, 0xbd,
  0xc8, 0xb4, 0xfc, 0x3b, 0xd6, 0x60, 0x76, 0xbd, 0xa4, 0xa8, 0x83, 0x3d,
  0x7e, 0x52, 0x6c, 0xbe, 0x00, 0xdd, 0xe0, 0x3d, 0x47, 0x38, 0x5d, 0xbe,
  0xb4, 0x1b, 0xc8, 0x3e, 0x9d, 0x12, 0xc4, 0xbd, 0xd8, 0x27, 0x3e, 0xbd,
  0xd0, 0xd3, 0x21, 0x40, 0x4a, 0xe9, 0x40, 0x3d, 0x33, 0x9a, 0xa2, 0xbc,
  0xb3, 0x77, 0x54, 0xbe, 0x16, 0xe3, 0x9f, 0xbe, 0x58, 0x1e, 0xad, 0x36,
  0x0a, 0x8a, 0x55, 0x3c, 0x2b, 0xa5, 0x20, 0xbd, 0x41, 0x6c, 0x80, 0xbd,
  0x8c, 0x58, 0x67, 0xbe, 0x78, 0x25, 0x2d, 0xbe, 0x26, 0xfc, 0x34, 0xbe,
  0x3e, 0x15, 0xc1, 0xbd, 0x65, 0xe7, 0xea, 0x3e, 0x3b, 0x9d, 0xab, 0x3c,
  0x68, 0x82, 0x09, 0xbe, 0xb1, 0xf3, 0xf6, 0x3f, 0x59, 0xed, 0x40, 0x3e,
  0x8b, 0xcf, 0x3a, 0xbe, 0x47, 0x4a, 0x86, 0x3c, 0x46, 0x3d, 0x03, 0xbe,
  0x2f, 0x60, 0x6e, 0x3e, 0x74, 0xc3, 0x59, 0xbe, 0xb4, 0x6b, 0x6a, 0xbe,
  0x4b, 0x84, 0xca, 0xbd, 0x0c, 0x90, 0x50, 0xbe, 0xfa, 0x26, 0x92, 0xbc,
  0x8f, 0x36, 0x66, 0xbd, 0x0d, 0xc5, 0x78, 0x3b, 0xe3, 0x84, 0x0f, 0x3f,
  0x04, 0x93, 0x18, 0xbe, 0xdc, 0x07, 0x3c, 0x3d, 0x19, 0x22, 0x22, 0x40,
  0x91, 0x26, 0x87, 0xbd, 0x9f, 0x90, 0x54, 0x3e, 0xc4, 0x06, 0x06, 0xbe,
  0x81, 0x1a, 0xe7, 0xbc, 0x54, 0xa3, 0x32, 0xbb, 0xae, 0x95, 0x26, 0xbe,
  0x2d, 0x98, 0x0c, 0xbe, 0x82, 0xcc, 0x46, 0xbe, 0xc8, 0x82, 0x33, 0xbe,
  0x71, 0x98, 0x8c, 0xbe, 0x32, 0x2b, 0xe2, 0x3d, 0x44, 0x1f, 0xfc, 0x3d,
  0xd8, 0x26, 0xf3, 0x3e, 0x75, 0x12, 0xe9, 0xbd, 0x4a, 0x5c, 0x84, 0xbe,
  0xc4, 0x0c, 0x0b, 0x40, 0x78, 0x38, 0xa5, 0xbd, 0xbc, 0x87, 0x66, 0x3d,
  0xb0, 0xec, 0x1c, 0xbe, 0x22, 0x54, 0x8c, 0xbd, 0x43, 0x7f, 0xf0, 0xbd,
  0x44, 0x61, 0x8f, 0xbe, 0xf9, 0xe8, 0x5f, 0xbe, 0xe8, 0x39, 0xb0, 0xbd,
  0x1b, 0x42, 0x2a, 0x3d, 0x74, 0xf9, 0x65, 0xbe, 0x2e, 0x30, 0x22, 0xbe,
  0xa8, 0x02, 0x0b, 0xbe, 0xf9, 0x43, 0xce, 0x3e, 0x6b, 0x74, 0x2f, 0xbe,
  0x23, 0x30, 0xb6, 0xbd, 0x8a, 0x59, 0xc1, 0x3f, 0xda, 0xe3, 0x9f, 0xbc,
  0x8b, 0xc1, 0x92, 0x3d, 0x0c, 0x65, 0xf7, 0xbb, 0x00, 0x39, 0x59, 0xbe,
  0x19, 0xa6, 0xca, 0x3d, 0xd0, 0x5e, 0x87, 0xbd, 0x02, 0xf1, 0x69, 0xbe,
  0xb0, 0xac, 0xbe, 0x3d, 0x98, 0x49, 0x46, 0xbe, 0x67, 0xeb, 0x1d, 0xbd,
  0x79, 0x2b, 0xa1, 0xbc, 0xdf, 0x84, 0xec, 0xbc, 0x1f, 0x6b, 0xb1, 0x3d,
  0x50, 0xbb, 0xa9, 0x3d, 0x8a, 0xee, 0x0e, 0xbe, 0xaf, 0xc5, 0x18, 0x3e,
  0x2f, 0x09, 0x16, 0xbe, 0xbf, 0x9c, 0xb6, 0xbd, 0xfc, 0x91, 0x29, 0xbe,
  0xe8, 0xb6, 0x82, 0xbe, 0x8f, 0xb7, 0x02, 0x3d, 0x13, 0x10, 0x04, 0xbc,
  0xb1, 0xdb, 0x05, 0xbe, 0xdf, 0x6c, 0xe3, 0xbc, 0xb8, 0xec, 0x73, 0x3e,
  0x85, 0xdc, 0x36, 0xbd, 0x7b, 0xf7, 0x5d, 0xbe, 0xb9, 0x49, 0x90, 0xbe,
  0xc6, 0x1a, 0x92, 0x3e, 0xd5, 0x5e, 0x39, 0x3d, 0x7e, 0xe9, 0xd0, 0xbd,
  0x98, 0x52, 0x1f, 0x3e, 0x74, 0x3d, 0x8a, 0xbe, 0x88, 0x30, 0xa3, 0xbe,
  0x74, 0x54, 0xbf, 0x3d, 0x10, 0x99, 0x24, 0x3e, 0x27, 0xb7, 0xa1, 0xbe,
  0x61, 0x79, 0x96, 0xbd, 0x6b, 0x53, 0x77, 0x3c, 0x44, 0x48, 0xb6, 0xbc,
  0xb8, 0x9b, 0xd4, 0x3d, 0xa9, 0x29, 0x02, 0xbc, 0xc6, 0x0e, 0x32, 0xbe,
  0x79, 0x8a, 0x80, 0xbe, 0xf0, 0x39, 0xdf, 0x3d, 0x86, 0x2b, 0xfd, 0x3c,
  0x09, 0x16, 0x8c, 0xbe, 0x4f, 0xef, 0xf4, 0x3d, 0xde, 0xb3, 0x57, 0xbd,
  0x4b, 0xb5, 0xa5, 0xbd, 0x97, 0x98, 0xbe, 0x3d, 0xca, 0x84, 0xb5, 0x3a,
  0x45, 0xf4, 0x65, 0xbe, 0xe2, 0x28, 0xaa, 0xbe, 0xc2, 0x04, 0x3a, 0xbe,
  0x83, 0xd0, 0x6a, 0x3e, 0x25, 0x84, 0x88, 0x3e, 0x74, 0x6b, 0xda, 0xbc,
  0xc9, 0xd6, 0xf9, 0xbd, 0x6f, 0x63, 0x10, 0xbe, 0x5c, 0x9c, 0x8a, 0xbe,
  0x71, 0xdb, 0x20, 0x3d, 0x76, 0x58, 0x99, 0xbd, 0xf3, 0x58, 0xe1, 0xbd,
  0xa9, 0x02, 0x70, 0x3c, 0x23, 0x2c, 0x22, 0xbd, 0x76, 0x90, 0x38, 0x3e,
  0x3e, 0xbc, 0x89, 0xbc, 0xfb, 0xef, 0x40, 0xbe, 0x2e, 0xbe, 0xa9, 0xbe,
  0x4d, 0x12, 0x3e, 0x3c, 0xa3, 0xe4, 0x24, 0x3d, 0xef, 0x49, 0x8e, 0x3e,
  0x53, 0xe1, 0x05, 0x3d, 0x2a, 0x60, 0xd1, 0xbd, 0xe2, 0x46, 0x07, 0xbe,
  0x86, 0x1f, 0x92, 0x3d, 0xa0, 0xee, 0x83, 0xbd, 0x67, 0xcb, 0x6d, 0x3d,
  0xd6, 0xd4, 0x21, 0xbe, 0x46, 0x30, 0xf7, 0xbd, 0xb7, 0xd5, 0x8d, 0xbd,
  0x05, 0x8c, 0x8d, 0x3e, 0xf5, 0xf2, 0x87, 0x3d, 0x46, 0xbd, 0x98, 0xbe,
  0xa0, 0x20, 0x80, 0x3d, 0xef, 0x16, 0x98, 0xbd, 0xe5, 0x73, 0x82, 0x3e,
  0x63, 0x60, 0x30, 0x3e, 0x30, 0xb8, 0xc5, 0x3c, 0x36, 0xf1, 0xc3, 0xbe,
  0x20, 0x4b, 0x34, 0xbe, 0xd4, 0xa5, 0xcc, 0x3d, 0x72, 0x64, 0x45, 0xba,
  0x47, 0x6e, 0xd9, 0xbd, 0x88, 0x0f, 0x00, 0xbe, 0x1b, 0x96, 0xc4, 0x3c,
  0x5d, 0xae, 0x25, 0xbe, 0x8a, 0x6d, 0xfc, 0x3d, 0x1b, 0x05, 0xeb, 0x3d,
  0x69, 0x63, 0x1f, 0xbe, 0xc2, 0xd3, 0x94, 0xbe, 0x00, 0x44, 0x24, 0xbe,
  0xa4, 0x7c, 0x6b, 0x3e, 0x9b, 0x1f, 0xa8, 0x3e, 0x76, 0x34, 0x12, 0x3c,
  0xa0, 0x55, 0x83, 0xbe, 0xa4, 0x95, 0xdc, 0xbe, 0xe7, 0x9d, 0x5e, 0xbe,
  0xf9, 0x4e, 0x33, 0x3d, 0x78, 0x50, 0x1d, 0xbe, 0x97, 0x7c, 0xe9, 0xbb,
  0x07, 0x44, 0x8a, 0x3d, 0x63, 0x13, 0x9e, 0xbe, 0x44, 0x81, 0x09, 0x3e,
  0x0f, 0x42, 0x53, 0x3d, 0x9a, 0xd2, 0x01, 0xbf, 0x4c, 0xc3, 0x1c, 0x3d,
  0xa2, 0xf5, 0x19, 0xbd, 0xde, 0x4e, 0x5a, 0x3e, 0x6c, 0x6b, 0x2d, 0xbd,
  0x4a, 0x42, 0x86, 0xbc, 0xc7, 0x01, 0xa5, 0xbe, 0xdd, 0x6c, 0x67, 0xbe,
  0x42, 0xfe, 0x57, 0x3e, 0x55, 0xad, 0x3f, 0xbe, 0x98, 0x1c, 0x64, 0xbe,
  0xc8, 0x2d, 0x1e, 0xbe, 0x1f, 0x93, 0x0c, 0xbd, 0x74, 0xab, 0x40, 0xbe,
  0x81, 0x45, 0x54, 0x3e, 0x55, 0xc8, 0x68, 0xbb, 0xca, 0xf2, 0xbf, 0xbd,
  0x60, 0x5f, 0x1d, 0xbe, 0x38, 0x32, 0xb2, 0x3c, 0xc2, 0x52, 0xa5, 0x3d,
  0xdb, 0x0a, 0x6a, 0x3e, 0xd5, 0x1b, 0xa6, 0xbe, 0x3f, 0x90, 0x40, 0xbd,
  0xe3, 0xe9, 0x4b, 0x3e, 0x03, 0xd0, 0xb6, 0x3d, 0xdf, 0xbf, 0x41, 0xbe,
  0x74, 0x5e, 0x85, 0x3d, 0x8f, 0x53, 0x81, 0x3e, 0x5f, 0x35, 0x87, 0x3e,
  0xea, 0x3f, 0x9c, 0x3e, 0xb9, 0x4d, 0x86, 0x3c, 0x82, 0x66, 0x69, 0x3d,
  0x79, 0xe7, 0xa8, 0x3d, 0x13, 0xde, 0xe4, 0xbd, 0x13, 0x89, 0x64, 0xbd,
  0x75, 0x93, 0xe3, 0x3e, 0x3d, 0x61, 0xf2, 0xbb, 0x00, 0x14, 0xd7, 0x3d,
  0x54, 0x63, 0x89, 0x3e, 0xba, 0x71, 0x73, 0xbd, 0xbd, 0xfe, 0xdf, 0x3d,
  0x76, 0xd9, 0xbf, 0xbe, 0x5b, 0x3d, 0xd6, 0xbc, 0x3f, 0xaf, 0xe1, 0xbd,
  0x6e, 0x67, 0xa9, 0xbe, 0x5a, 0xec, 0xa0, 0xbe, 0xdc, 0xe2, 0xc8, 0xbb,
  0x04, 0x55, 0x83, 0xbd, 0x7d, 0x79, 0x85, 0xbe, 0x77, 0x97, 0x14, 0x3d,
  0x98, 0x31, 0x6f, 0xbc, 0x86, 0x67, 0x55, 0xbe, 0x48, 0x15, 0xbe, 0xbe,
  0x2d, 0xa6, 0xcf, 0x3d, 0x4e, 0xc6, 0x08, 0xbe, 0x97, 0x1a, 0x30, 0xbe,
  0x04, 0x7c, 0x53, 0xbe, 0x55, 0x46, 0xce, 0xbe, 0xf0, 0x9d, 0x89, 0xbd,
  0xe6, 0x3d, 0x0f, 0x3b, 0xbe, 0x7a, 0x45, 0xbe, 0xcd, 0xc7, 0x12, 0xbf,
  0x3f, 0x93, 0x1f, 0x3d, 0xab, 0x7a, 0xe9, 0xbe, 0x4f, 0x60, 0x53, 0xbe,
  0xb9, 0x6e, 0xca, 0x3d, 0x7c, 0x68, 0x83, 0x3e, 0x89, 0xf8, 0xad, 0xbe,
  0x71, 0x1c, 0x5a, 0xbe, 0x79, 0x76, 0xd7, 0xbd, 0xba, 0x3c, 0x2b, 0xbd,
  0x9b, 0xdd, 0x8f, 0xbd, 0xe1, 0x48, 0xf7, 0xbd, 0x9c, 0x61, 0xe4, 0xbe,
  0xc9, 0x22, 0x4b, 0xbe, 0x42, 0xbd, 0x12, 0x3b, 0x67, 0x2a, 0x26, 0xbe,
  0x2a, 0x9f, 0x26, 0xbe, 0x4f, 0x30, 0xf9, 0xbd, 0xaa, 0x96, 0x5d, 0xbf,
  0x01, 0xc8, 0x1c, 0xbe, 0x98, 0x97, 0x80, 0x3c, 0x78, 0xaa, 0xd6, 0xbd,
  0x78, 0xb6, 0xba, 0x3c, 0xb2, 0xc3, 0x00, 0xbe, 0xf5, 0xbb, 0x91, 0xbd,
  0x8e, 0x44, 0xa8, 0x3c, 0x57, 0xcf, 0x80, 0xbd, 0x84, 0xb8, 0x9b, 0x3d,
  0xed, 0x7c, 0xb8, 0xbe, 0xbe, 0xc6, 0xc9, 0xbe, 0xf1, 0x83, 0x42, 0x3d,
  0x53, 0x5b, 0x75, 0xbe, 0xda, 0x81, 0x5a, 0xbe, 0x3e, 0x70, 0xd4, 0xbe,
  0x7e, 0x69, 0xa6, 0xbe, 0x04, 0xfa, 0x71, 0x3c, 0x92, 0xc4, 0xa7, 0xbd,
  0xba, 0x26, 0xa9, 0xbd, 0x9d, 0x15, 0x02, 0xbe, 0x26, 0xc3, 0x73, 0x3d,
  0xb0, 0xb2, 0xcc, 0xbd, 0x9a, 0x47, 0x0b, 0xbe, 0x20, 0xe1, 0x5d, 0xbc,
  0x34, 0x99, 0x1a, 0x3d, 0xeb, 0x0c, 0x35, 0xbe, 0x17, 0x5e, 0x8f, 0xbe,
  0xab, 0x96, 0x92, 0xbd, 0x58, 0xf7, 0x8d, 0xbb, 0x8b, 0x4e, 0x8d, 0xbe,
  0xc6, 0xdf, 0xfe, 0x3c, 0x87, 0x10, 0x1a, 0xbe, 0x0a, 0x0b, 0x11, 0xbd,
  0x30, 0x3c, 0x9d, 0xbd, 0x90, 0x95, 0xd8, 0xbc, 0x06, 0x8a, 0x1c, 0xbe,
  0x18, 0x06, 0x44, 0xbe, 0x9d, 0xc8, 0xc6, 0xbd, 0x0d, 0xf8, 0x50, 0xbd,
  0xe8, 0x9d, 0xe2, 0xbb, 0x80, 0x7a, 0x09, 0xbd, 0xe3, 0xe0, 0xec, 0xbe,
  0x32, 0x5a, 0x50, 0xbb, 0x1e, 0x9a, 0x58, 0x3d, 0x12, 0x6c, 0x8c, 0xbd,
  0x66, 0xdb, 0xd1, 0xbd, 0xbe, 0x28, 0xe9, 0xbe, 0xd0, 0x28, 0x14, 0x3d,
  0x15, 0x5b, 0x01, 0x3d, 0xf1, 0xc9, 0x0d, 0xbe, 0xe2, 0x5d, 0x8f, 0x3b,
  0xd6, 0x47, 0x0d, 0xbe, 0xc1, 0xd5, 0xa8, 0xbe, 0x94, 0xfd, 0x11, 0xbd,
  0x0d, 0x92, 0x10, 0xbd, 0xdb, 0x8e, 0x18, 0xbb, 0xda, 0x94, 0x89, 0xbe,
  0x5a, 0x69, 0x01, 0x3e, 0x06, 0x4c, 0x51, 0xbe, 0x1a, 0x7b, 0xe5, 0xbd,
  0x56, 0xaa, 0x1f, 0x3e, 0x15, 0xea, 0x48, 0xbe, 0x0e, 0xa0, 0xdb, 0xbe,
  0x30, 0x67, 0x6f, 0xbd, 0x71, 0x34, 0xd2, 0x3d, 0xae, 0x91, 0x16, 0xbe,
  0x8f, 0xfa, 0xf5, 0xbc, 0xd2, 0xae, 0xe8, 0xbd, 0x8e, 0xa9, 0xad, 0x3d,
  0x52, 0x71, 0x3e, 0xbd, 0x0e, 0x46, 0x31, 0xbd, 0xa0, 0xff, 0xc2, 0x3d,
  0xd3, 0x21, 0x60, 0xbe, 0xb5, 0x64, 0x26, 0x3e, 0x9f, 0x1b, 0x7c, 0xbe,
  0x08, 0x3b, 0xaf, 0xbd, 0x67, 0x5a, 0x48, 0x3e, 0xbe, 0x1f, 0xa0, 0x3d,
  0xfd, 0x20, 0xc2, 0xbe, 0x93, 0xa7, 0x07, 0xbe, 0x57, 0xb4, 0xfe, 0x3d,
  0x17, 0xf4, 0xdf, 0x3d, 0x12, 0xf0, 0x17, 0xbe, 0x3a, 0x32, 0x12, 0x3e,
  0x21, 0x04, 0xfd, 0x3b, 0xb2, 0xd7, 0xf5, 0xbd, 0x54, 0x64, 0xb2, 0xbd,
  0x4f, 0xfd, 0xaa, 0xbc, 0x4b, 0x63, 0x12, 0xbe, 0x86, 0xe4, 0xc4, 0x3c,
  0x98, 0x99, 0x72, 0xbe, 0x43, 0xe4, 0xaa, 0xbd, 0xfb, 0xd9, 0x6b, 0x3c,
  0x20, 0xce, 0xef, 0x3d, 0xf2, 0x1d, 0x5f, 0xbe, 0xa4, 0x08, 0x91, 0xbd,
  0x9c, 0x99, 0x3a, 0xbd, 0x4e, 0x70, 0x00, 0xbe, 0x5b, 0xcd, 0x2f, 0x39,
  0xc7, 0x40, 0x1b, 0xbd, 0x23, 0x5f, 0x8f, 0xbc, 0x51, 0xe1, 0x3e, 0x3d,
  0x1b, 0x82, 0x2e, 0xbd, 0xa3, 0x1c, 0x6a, 0x3d, 0x13, 0x09, 0xa1, 0xbe,
  0x82, 0xd5, 0x76, 0x3e, 0xb4, 0xbe, 0x9e, 0xbd, 0xb2, 0xcf, 0x9a, 0xbd,
  0xd7, 0x48, 0x35, 0x3c, 0x76, 0xe2, 0xb0, 0x3d, 0x15, 0x89, 0x58, 0xbd,
  0x5f, 0xb7, 0x4d, 0xbd, 0xdf, 0xb1, 0x12, 0x3d, 0x63, 0xff, 0xf8, 0xbd,
  0x5f, 0x81, 0xf6, 0xbd, 0x4c, 0xb6, 0x29, 0x3e, 0x65, 0x54, 0xb4, 0xbd,
  0x33, 0xf4, 0xe8, 0xbc, 0xd3, 0xe2, 0x16, 0xbe, 0x10, 0xd3, 0x40, 0x3d,
  0x4b, 0x2f, 0x63, 0xbd, 0x2b, 0xff, 0x14, 0x3e, 0xe4, 0x4d, 0x96, 0xbe,
  0x55, 0x6f, 0xfd, 0xbd, 0x1a, 0x9c, 0x88, 0xbd, 0xd9, 0x13, 0x42, 0x3d,
  0x4b, 0x62, 0x02, 0xbe, 0x49, 0x33, 0x54, 0x3d, 0x22, 0x11, 0x98, 0x3d,
  0x3f, 0xe5, 0xfd, 0x3d, 0xdd, 0x9c, 0x85, 0xbd, 0x49, 0x10, 0xdf, 0x3d,
  0xb3, 0x73, 0xa0, 0xbe, 0x37, 0x82, 0x56, 0xbd, 0xd3, 0x53, 0x4d, 0xbe,
  0xec, 0xf9, 0xd6, 0x3d, 0x8b, 0x4b, 0xc0, 0xbe, 0xc3, 0x1d, 0x07, 0x3e,
  0xcb, 0xbc, 0xd4, 0xbe, 0x53, 0x6d, 0x44, 0xbd, 0x42, 0xc5, 0x6c, 0x3d,
  0x79, 0xc6, 0x4c, 0x3d, 0x4d, 0xf6, 0x21, 0xbe, 0xa3, 0x06, 0xe9, 0xbe,
  0xc3, 0x1f, 0x19, 0x3d, 0x3c, 0x68, 0xd9, 0xbd, 0x12, 0xd1, 0x59, 0xbd,
  0xde, 0x0b, 0x2f, 0xbd, 0x1d, 0x3a, 0x02, 0x3c, 0x43, 0x8b, 0xe7, 0x3d,
  0xdc, 0xc2, 0x41, 0xbe, 0x6c, 0x54, 0x14, 0xbd, 0x80, 0xc2, 0x77, 0x3e,
  0x7b, 0xdf, 0x7a, 0x3d, 0x9c, 0x8a, 0xa9, 0xbd, 0xe7, 0x31, 0x6f, 0x3e,
  0x8d, 0xa0, 0x85, 0xbd, 0xc3, 0x9f, 0x6f, 0xbd, 0x55, 0xa2, 0x74, 0xbe,
  0xea, 0xde, 0xc6, 0x3c, 0x6a, 0xfd, 0xc7, 0xbd, 0xff, 0xef, 0x57, 0xbe,
  0x6b, 0x83, 0x77, 0x3d, 0xba, 0x72, 0x54, 0xbe, 0x45, 0x81, 0x69, 0x3e,
  0x38, 0x76, 0x17, 0x3d, 0xa0, 0x7e, 0xa2, 0xbe, 0xd0, 0xb9, 0x8d, 0xbe,
  0x4b, 0xd9, 0x8e, 0xbd, 0x5f, 0x70, 0xac, 0xbb, 0x72, 0x8f, 0xa0, 0xbd,
  0x5c, 0xfa, 0xb8, 0xbd, 0x92, 0xea, 0x6d, 0xbe, 0xed, 0xc0, 0x76, 0xbe,
  0xc1, 0xe3, 0x62, 0x3d, 0x16, 0x3f, 0x2c, 0x3a, 0xc1, 0x62, 0x4a, 0xbe,
  0x52, 0xeb, 0x23, 0xbe, 0x61, 0x45, 0xb5, 0xbd, 0x17, 0x82, 0xc0, 0xbd,
  0xed, 0x10, 0x83, 0x3e, 0x64, 0x85, 0x59, 0x3d, 0xbf, 0x0a, 0x37, 0xbe,
  0x89, 0xe0, 0xda, 0xbd, 0xd5, 0x4f, 0xa9, 0xbd, 0x04, 0x22, 0xc4, 0x3d,
  0xd6, 0xd2, 0x85, 0xbe, 0xcf, 0x6f, 0x1f, 0x3d, 0x4a, 0xc8, 0x1d, 0x3e,
  0xae, 0xdc, 0x89, 0x3c, 0xe4, 0x89, 0x36, 0x3e, 0x88, 0xaa, 0xcf, 0x3d,
  0x1a, 0xe9, 0x40, 0xbe, 0x0b, 0x7e, 0x04, 0xbe, 0xc1, 0xfa, 0x45, 0xbe,
  0xb4, 0xc1, 0x72, 0x3d, 0xf3, 0xe8, 0xfd, 0x3d, 0x85, 0x69, 0x0d, 0x3e,
  0xa7, 0x45, 0x0c, 0xbe, 0x03, 0x07, 0x82, 0xbd, 0x07, 0xcd, 0x84, 0xbc,
  0x81, 0x02, 0x73, 0xbd, 0xaf, 0x16, 0x41, 0xbe, 0x97, 0x2e, 0x1b, 0xbd,
  0x02, 0xa8, 0x1b, 0xbd, 0x64, 0x75, 0x97, 0xbe, 0x9d, 0x54, 0xe3, 0x3d,
  0x38, 0x6d, 0x00, 0x3e, 0xad, 0x8c, 0x83, 0xbe, 0x43, 0x96, 0xfb, 0xbd,
  0x04, 0xb4, 0x32, 0xbe, 0x39, 0x19, 0x6b, 0x3e, 0xe0, 0x0f, 0x81, 0x3e,
  0x24, 0xd9, 0xae, 0x3a, 0x71, 0x7f, 0x30, 0xbe, 0xef, 0x90, 0xc0, 0xbd,
  0x17, 0xe1, 0xcb, 0x3d, 0x7f, 0x82, 0x33, 0xbd, 0xe4, 0x4e, 0x65, 0xbe,
  0x3d, 0xb2, 0x73, 0x3b, 0x58, 0x54, 0x1f, 0x3e, 0x20, 0x4b, 0x96, 0xbd,
  0xb1, 0xb7, 0xfe, 0x3d, 0xdf, 0x8f, 0x51, 0xbc, 0xd4, 0xa9, 0x9f, 0xbd,
  0x99, 0xc6, 0xb5, 0x3b, 0xe9, 0xce, 0xc7, 0xbd, 0xce, 0xad, 0x61, 0x3e,
  0x26, 0x32, 0x0f, 0x3e, 0xe1, 0x63, 0x61, 0xbd, 0x0d, 0x38, 0x94, 0xbd,
  0x29, 0x7f, 0xde, 0xbd, 0x72, 0x20, 0x19, 0x3e, 0xea, 0x8d, 0xe3, 0x3d,
  0x7d, 0x44, 0x0c, 0xbe, 0x90, 0x7f, 0x73, 0x3d, 0x06, 0xd4, 0x2d, 0xbe,
  0x8a, 0xf4, 0x40, 0xbe, 0xa4, 0x32, 0x31, 0x3e, 0x5a, 0x01, 0x42, 0x3d,
  0xac, 0xb9, 0x92, 0xbd, 0x83, 0x3a, 0x81, 0xbe, 0xcb, 0xf3, 0x9d, 0xbe,
  0x7e, 0xf9, 0x54, 0x3e, 0x1e, 0xfc, 0x0e, 0x3e, 0xce, 0x22, 0x6e, 0x3c,
  0xab, 0x88, 0x4f, 0xbe, 0xe1, 0xe8, 0x6b, 0xbe, 0xcc, 0x2a, 0x34, 0xbe,
  0x13, 0xf4, 0x33, 0x3e, 0xd0, 0x7e, 0x23, 0xbe, 0x27, 0x8d, 0x86, 0x3c,
  0x22, 0x13, 0x0a, 0xbe, 0x55, 0xfa, 0xb1, 0x3d, 0x84, 0x1b, 0x49, 0x3d,
  0x97, 0x45, 0xdd, 0x3d, 0xd2, 0x79, 0x65, 0xbe, 0xc3, 0x64, 0x97, 0xbd,
  0x66, 0xa8, 0xa3, 0x3c, 0xe0, 0x17, 0x8b, 0x3c, 0x13, 0x5c, 0xce, 0xbd,
  0x28, 0x3c, 0xf0, 0xbc, 0xe1, 0x39, 0x5e, 0xbe, 0x0b, 0xd8, 0x27, 0xbe,
  0x34, 0x23, 0x24, 0x3e, 0xe2, 0x54, 0x83, 0xbc, 0xdc, 0x43, 0x31, 0xbe,
  0x78, 0x76, 0x7d, 0xbe, 0x05, 0xc4, 0x73, 0x3b, 0xb1, 0xf1, 0xe1, 0xbd,
  0xc2, 0x50, 0xf2, 0x3d, 0x9a, 0xc8, 0x21, 0xbd, 0xca, 0x5a, 0x0b, 0xbe,
  0xd8, 0x4e, 0xd0, 0xbe, 0x27, 0x17, 0xf0, 0xbd, 0x45, 0xf1, 0x04, 0x3e,
  0x46, 0xfe, 0xff, 0xff, 0x10, 0x00, 0x00, 0x00, 0x05, 0x00, 0x00, 0x00,
  0x14, 0x00, 0x00, 0x00, 0x2c, 0x00, 0x00, 0x00, 0x02, 0x00, 0x00, 0x00,
  0x10, 0x00, 0x00, 0x00, 0x70, 0x00, 0x00, 0x00, 0x17, 0x00, 0x00, 0x00,
  0x73, 0x65, 0x71, 0x75, 0x65, 0x6e, 0x74, 0x69, 0x61, 0x6c, 0x2f, 0x64,
  0x65, 0x6e, 0x73, 0x65, 0x2f, 0x4d, 0x61, 0x74, 0x4d, 0x75, 0x6c, 0x00,
  0x34, 0xfe, 0xff, 0xff, 0x2a, 0xff, 0xff, 0xff, 0x04, 0x00, 0x00, 0x00,
  0x08, 0x00, 0x00, 0x00, 0xff, 0xff, 0xff, 0xff, 0x70, 0x00, 0x00, 0x00,
  0x00, 0x00, 0x0e, 0x00, 0x18, 0x00, 0x08, 0x00, 0x07, 0x00, 0x0c, 0x00,
  0x10, 0x00, 0x14, 0x00, 0x0e, 0x00, 0x00, 0x00, 0x00, 0x00, 0x00, 0x02,
  0x10, 0x00, 0x00, 0x00, 0x04, 0x00, 0x00, 0x00, 0x10, 0x00, 0x00, 0x00,
  0x2c, 0x00, 0x00, 0x00, 0x01, 0x00, 0x00, 0x00, 0x02, 0x00, 0x00, 0x00,
  0x18, 0x00, 0x00, 0x00, 0x73, 0x65, 0x71, 0x75, 0x65, 0x6e, 0x74, 0x69,
  0x61, 0x6c, 0x2f, 0x66, 0x6c, 0x61, 0x74, 0x74, 0x65, 0x6e, 0x2f, 0x43,
  0x6f, 0x6e, 0x73, 0x74, 0x00, 0x00, 0x00, 0x00, 0x9c, 0xfe, 0xff, 0xff,
  0x92, 0xff, 0xff, 0xff, 0x04, 0x00, 0x00, 0x00, 0x10, 0x00, 0x00, 0x00,
  0x2d, 0x89, 0x44, 0x3f, 0xcc, 0x3d, 0xc9, 0x3d, 0x5f, 0x10, 0x07, 0xc0,
  0x3f, 0xd0, 0xd1, 0x3e, 0x0a, 0xff, 0xff, 0xff, 0x10, 0x00, 0x00, 0x00,
  0x03, 0x00, 0x00, 0x00, 0x10, 0x00, 0x00, 0x00, 0x3c, 0x00, 0x00, 0x00,
  0x01, 0x00, 0x00, 0x00, 0x04, 0x00, 0x00, 0x00, 0x29, 0x00, 0x00, 0x00,
  0x73, 0x65, 0x71, 0x75, 0x65, 0x6e, 0x74, 0x69, 0x61, 0x6c, 0x2f, 0x64,
  0x65, 0x6e, 0x73, 0x65, 0x5f, 0x31, 0x2f, 0x42, 0x69, 0x61, 0x73, 0x41,
  0x64, 0x64, 0x2f, 0x52, 0x65, 0x61, 0x64, 0x56, 0x61, 0x72, 0x69, 0x61,
  0x62, 0x6c, 0x65, 0x4f, 0x70, 0x00, 0x00, 0x00, 0x60, 0xff, 0xff, 0xff,
  0x00, 0x00, 0x06, 0x00, 0x08, 0x00, 0x04, 0x00, 0x06, 0x00, 0x00, 0x00,
  0x04, 0x00, 0x00, 0x00, 0x40, 0x00, 0x00, 0x00, 0x80, 0xf4, 0xc4, 0x3f,
  0x70, 0xde, 0x91, 0xbf, 0xa0, 0x60, 0xd4, 0x3d, 0x0a, 0x02, 0xf7, 0x3d,
  0x91, 0xd4, 0xf0, 0x3f, 0x7d, 0xe7, 0xe9, 0xbf, 0xb3, 0xe1, 0x08, 0x3f,
  0x65, 0x73, 0x86, 0x3f, 0x00, 0x45, 0x2a, 0x40, 0x28, 0x94, 0xb2, 0xbe,
  0x66, 0xd3, 0xb1, 0xbf, 0x2c, 0xa3, 0x5f, 0x3e, 0x40, 0x97, 0x8c, 0xbe,
  0x68, 0xc8, 0x0c, 0xc0, 0x78, 0xce, 0x98, 0x3f, 0x51, 0x54, 0x10, 0xbe,
  0xae, 0xff, 0xff, 0xff, 0x10, 0x00, 0x00, 0x00, 0x02, 0x00, 0x00, 0x00,
  0x10, 0x00, 0x00, 0x00, 0x3c, 0x00, 0x00, 0x00, 0x01, 0x00, 0x00, 0x00,
  0x10, 0x00, 0x00, 0x00, 0x27, 0x00, 0x00, 0x00, 0x73, 0x65, 0x71, 0x75,
  0x65, 0x6e, 0x74, 0x69, 0x61, 0x6c, 0x2f, 0x64, 0x65, 0x6e, 0x73, 0x65,
  0x2f, 0x42, 0x69, 0x61, 0x73, 0x41, 0x64, 0x64, 0x2f, 0x52, 0x65, 0x61,
  0x64, 0x56, 0x61, 0x72, 0x69, 0x61, 0x62, 0x6c, 0x65, 0x4f, 0x70, 0x00,
  0x04, 0x00, 0x06, 0x00, 0x04, 0x00, 0x00, 0x00, 0x00, 0x00, 0x0e, 0x00,
  0x14, 0x00, 0x04, 0x00, 0x00, 0x00, 0x08, 0x00, 0x0c, 0x00, 0x10, 0x00,
  0x0e, 0x00, 0x00, 0x00, 0x10, 0x00, 0x00, 0x00, 0x01, 0x00, 0x00, 0x00,
  0x1c, 0x00, 0x00, 0x00, 0x2c, 0x00, 0x00, 0x00, 0x04, 0x00, 0x00, 0x00,
  0x01, 0x00, 0x00, 0x00, 0x40, 0x00, 0x00, 0x00, 0x03, 0x00, 0x00, 0x00,
  0x01, 0x00, 0x00, 0x00, 0x0c, 0x00, 0x00, 0x00, 0x63, 0x6f, 0x6e, 0x76,
  0x32, 0x64, 0x5f, 0x69, 0x6e, 0x70, 0x75, 0x74, 0x00, 0x00, 0x00, 0x00,
  0xfc, 0xff, 0xff, 0xff, 0x04, 0x00, 0x04, 0x00, 0x04, 0x00, 0x00, 0x00
};
unsigned int _content_mbed_lab7_model_model_tflite_len = 12384;




unsigned int model_tflite_len = 12384;// Fill the int in `src/model.cc` here
